{
  "version": "1.0",
  "truncation": null,
  "padding": null,
  "added_tokens": [
    {
      "id": 0,
      "content": "[STOP]",
      "single_word": false,
      "lstrip": false,
      "rstrip": false,
      "normalized": false,
      "special": true
    },
    {
      "id": 1,
      "content": "[UNK]",
      "single_word": false,
      "lstrip": false,
      "rstrip": false,
      "normalized": false,
      "special": true
    },
    {
      "id": 2,
      "content": "[SPACE]",
      "single_word": false,
      "lstrip": false,
      "rstrip": false,
      "normalized": false,
      "special": true
    },
    {
      "id": 3,
      "content": "[START]",
      "single_word": false,
      "lstrip": false,
      "rstrip": false,
      "normalized": false,
      "special": true
    },
    {
      "id": 4,
      "content": "[bm]",
      "single_word": false,
      "lstrip": false,
      "rstrip": false,
      "normalized": false,
      "special": true
    },
    {
      "id": 5,
      "content": "[CLS]",
      "single_word": false,
      "lstrip": false,
      "rstrip": false,
      "normalized": false,
      "special": true
    },
    {
      "id": 6,
      "content": "[SEP]",
      "single_word": false,
      "lstrip": false,
      "rstrip": false,
      "normalized": false,
      "special": true
    },
    {
      "id": 7,
      "content": "[PAD]",
      "single_word": false,
      "lstrip": false,
      "rstrip": false,
      "normalized": false,
      "special": true
    },
    {
      "id": 8,
      "content": "[MASK]",
      "single_word": false,
      "lstrip": false,
      "rstrip": false,
      "normalized": false,
      "special": true
    }
  ],
  "normalizer": null,
  "pre_tokenizer": {
    "type": "Whitespace"
  },
  "post_processor": null,
  "decoder": null,
  "model": {
    "type": "BPE",
    "dropout": null,
    "unk_token": "[UNK]",
    "continuing_subword_prefix": null,
    "end_of_word_suffix": null,
    "fuse_unk": false,
    "byte_fallback": false,
    "vocab": {
      "[STOP]": 0,
      "[UNK]": 1,
      "[SPACE]": 2,
      "[START]": 3,
      "[bm]": 4,
      "[CLS]": 5,
      "[SEP]": 6,
      "[PAD]": 7,
      "[MASK]": 8,
      "!": 9,
      "\"": 10,
      "#": 11,
      "$": 12,
      "%": 13,
      "&": 14,
      "'": 15,
      "(": 16,
      ")": 17,
      "*": 18,
      "+": 19,
      ",": 20,
      "-": 21,
      ".": 22,
      "/": 23,
      "0": 24,
      "1": 25,
      "2": 26,
      "3": 27,
      "4": 28,
      "5": 29,
      "6": 30,
      "7": 31,
      "8": 32,
      "9": 33,
      ":": 34,
      ";": 35,
      "<": 36,
      "=": 37,
      ">": 38,
      "?": 39,
      "@": 40,
      "[": 41,
      "\\": 42,
      "]": 43,
      "^": 44,
      "_": 45,
      "`": 46,
      "a": 47,
      "b": 48,
      "c": 49,
      "d": 50,
      "e": 51,
      "f": 52,
      "g": 53,
      "h": 54,
      "i": 55,
      "j": 56,
      "k": 57,
      "l": 58,
      "m": 59,
      "n": 60,
      "o": 61,
      "p": 62,
      "q": 63,
      "r": 64,
      "s": 65,
      "t": 66,
      "u": 67,
      "v": 68,
      "w": 69,
      "x": 70,
      "y": 71,
      "z": 72,
      "{": 73,
      "|": 74,
      "}": 75,
      "~": 76,
      "¡": 77,
      "£": 78,
      "«": 79,
      "°": 80,
      "²": 81,
      "³": 82,
      "´": 83,
      "·": 84,
      "º": 85,
      "»": 86,
      "½": 87,
      "¾": 88,
      "×": 89,
      "à": 90,
      "á": 91,
      "â": 92,
      "ã": 93,
      "ä": 94,
      "å": 95,
      "ç": 96,
      "è": 97,
      "é": 98,
      "ê": 99,
      "ë": 100,
      "ì": 101,
      "í": 102,
      "î": 103,
      "ï": 104,
      "ñ": 105,
      "ò": 106,
      "ó": 107,
      "ô": 108,
      "õ": 109,
      "ö": 110,
      "ø": 111,
      "ù": 112,
      "ú": 113,
      "û": 114,
      "ü": 115,
      "ý": 116,
      "ā": 117,
      "ă": 118,
      "ć": 119,
      "č": 120,
      "đ": 121,
      "ğ": 122,
      "ĩ": 123,
      "ī": 124,
      "ı": 125,
      "ķ": 126,
      "ł": 127,
      "ŋ": 128,
      "œ": 129,
      "ś": 130,
      "ş": 131,
      "š": 132,
      "ũ": 133,
      "ū": 134,
      "ƙ": 135,
      "ơ": 136,
      "ư": 137,
      "ɐ": 138,
      "ɑ": 139,
      "ɔ": 140,
      "ɗ": 141,
      "ə": 142,
      "ɛ": 143,
      "ɜ": 144,
      "ɡ": 145,
      "ɣ": 146,
      "ɪ": 147,
      "ɲ": 148,
      "ɳ": 149,
      "ʁ": 150,
      "ʃ": 151,
      "ʊ": 152,
      "ʋ": 153,
      "ʼ": 154,
      "ˈ": 155,
      "ː": 156,
      "̀": 157,
      "́": 158,
      "̂": 159,
      "̇": 160,
      "̈": 161,
      "̌": 162,
      "̧": 163,
      "̩": 164,
      "ά": 165,
      "α": 166,
      "δ": 167,
      "ε": 168,
      "λ": 169,
      "ς": 170,
      "а": 171,
      "б": 172,
      "в": 173,
      "г": 174,
      "д": 175,
      "е": 176,
      "и": 177,
      "й": 178,
      "к": 179,
      "л": 180,
      "м": 181,
      "н": 182,
      "о": 183,
      "п": 184,
      "р": 185,
      "с": 186,
      "т": 187,
      "у": 188,
      "ф": 189,
      "ц": 190,
      "ш": 191,
      "ъ": 192,
      "я": 193,
      "ї": 194,
      "ԑ": 195,
      "ְ": 196,
      "ִ": 197,
      "ֵ": 198,
      "ָ": 199,
      "ׂ": 200,
      "א": 201,
      "ג": 202,
      "ד": 203,
      "ה": 204,
      "ו": 205,
      "ט": 206,
      "י": 207,
      "ל": 208,
      "ם": 209,
      "מ": 210,
      "נ": 211,
      "ס": 212,
      "ע": 213,
      "פ": 214,
      "ר": 215,
      "ש": 216,
      "ת": 217,
      "،": 218,
      "؟": 219,
      "أ": 220,
      "إ": 221,
      "ئ": 222,
      "ا": 223,
      "ب": 224,
      "ة": 225,
      "ت": 226,
      "ج": 227,
      "ح": 228,
      "خ": 229,
      "د": 230,
      "ر": 231,
      "ز": 232,
      "س": 233,
      "ش": 234,
      "ص": 235,
      "ظ": 236,
      "ع": 237,
      "غ": 238,
      "ف": 239,
      "ق": 240,
      "ك": 241,
      "ل": 242,
      "م": 243,
      "ن": 244,
      "ه": 245,
      "و": 246,
      "ى": 247,
      "ي": 248,
      "َ": 249,
      "ُ": 250,
      "ِ": 251,
      "ْ": 252,
      "ی": 253,
      "ߊ": 254,
      "ߋ": 255,
      "ߌ": 256,
      "ߍ": 257,
      "ߎ": 258,
      "ߏ": 259,
      "ߐ": 260,
      "ߒ": 261,
      "ߓ": 262,
      "ߕ": 263,
      "ߖ": 264,
      "ߘ": 265,
      "ߙ": 266,
      "ߛ": 267,
      "ߝ": 268,
      "ߞ": 269,
      "ߟ": 270,
      "ߠ": 271,
      "ߡ": 272,
      "ߣ": 273,
      "ߦ": 274,
      "߫": 275,
      "߬": 276,
      "߮": 277,
      "߯": 278,
      "߰": 279,
      "߲": 280,
      "ߴ": 281,
      "߸": 282,
      "अ": 283,
      "ग": 284,
      "द": 285,
      "म": 286,
      "य": 287,
      "र": 288,
      "व": 289,
      "ा": 290,
      "ि": 291,
      "ो": 292,
      "्": 293,
      "ማ": 294,
      "ር": 295,
      "ት": 296,
      "ኛ": 297,
      "አ": 298,
      "ግ": 299,
      "ᴐ": 300,
      "ḥ": 301,
      "ṃ": 302,
      "ṅ": 303,
      "ṇ": 304,
      "ṛ": 305,
      "ṣ": 306,
      "ṭ": 307,
      "ạ": 308,
      "ả": 309,
      "ấ": 310,
      "ầ": 311,
      "ậ": 312,
      "ế": 313,
      "ề": 314,
      "ệ": 315,
      "ị": 316,
      "ọ": 317,
      "ố": 318,
      "ồ": 319,
      "ớ": 320,
      "ờ": 321,
      "ở": 322,
      "ụ": 323,
      "ừ": 324,
      "ỳ": 325,
      "ὲ": 326,
      "​": 327,
      "‎": 328,
      "‏": 329,
      "–": 330,
      "—": 331,
      "‘": 332,
      "’": 333,
      "“": 334,
      "”": 335,
      "…": 336,
      "‰": 337,
      "″": 338,
      "テ": 339,
      "ホ": 340,
      "ル": 341,
      "冰": 342,
      "国": 343,
      "在": 344,
      "基": 345,
      "始": 346,
      "成": 347,
      "日": 348,
      "朝": 349,
      "本": 350,
      "皇": 351,
      "秦": 352,
      "范": 353,
      "鮮": 354,
      "기": 355,
      "문": 356,
      "성": 357,
      "인": 358,
      "재": 359,
      "an": 360,
      "in": 361,
      "ka": 362,
      "la": 363,
      "ma": 364,
      "ɔn": 365,
      "ye": 366,
      "li": 367,
      "ni": 368,
      "kɛ": 369,
      "ra": 370,
      "ba": 371,
      "en": 372,
      "ɛn": 373,
      "un": 374,
      "ɔr": 375,
      "wa": 376,
      "ti": 377,
      "min": 378,
      "na": 379,
      "ko": 380,
      "si": 381,
      "ya": 382,
      "ri": 383,
      "be": 384,
      "ani": 385,
      "ɔrɔ": 386,
      "ta": 387,
      "lo": 388,
      "sa": 389,
      "kan": 390,
      "ɔg": 391,
      "fɛ": 392,
      "bɛ": 393,
      "len": 394,
      "da": 395,
      "man": 396,
      "ku": 397,
      "kɔn": 398,
      "bi": 399,
      "ug": 400,
      "se": 401,
      "fi": 402,
      "ja": 403,
      "ga": 404,
      "dɔ": 405,
      "ɔgɔ": 406,
      "ki": 407,
      "di": 408,
      "fa": 409,
      "nin": 410,
      "ɲɛ": 411,
      "san": 412,
      "kun": 413,
      "rɛ": 414,
      "go": 415,
      "sɛ": 416,
      "mɛ": 417,
      "fɔ": 418,
      "lan": 419,
      "ugu": 420,
      "le": 421,
      "ca": 422,
      "bo": 423,
      "so": 424,
      "tɛ": 425,
      "yɔrɔ": 426,
      "kɔ": 427,
      "lɛ": 428,
      "gi": 429,
      "ur": 430,
      "yɛ": 431,
      "bɔ": 432,
      "te": 433,
      "ji": 434,
      "kɔnɔ": 435,
      "gɛ": 436,
      "ha": 437,
      "mɔgɔ": 438,
      "on": 439,
      "mi": 440,
      "co": 441,
      "ini": 442,
      "tun": 443,
      "ara": 444,
      "waa": 445,
      "dɔn": 446,
      "ke": 447,
      "re": 448,
      "lu": 449,
      "sɔrɔ": 450,
      "fɛn": 451,
      "mu": 452,
      "ina": 453,
      "mana": 454,
      "de": 455,
      "ro": 456,
      "to": 457,
      "waati": 458,
      "fan": 459,
      "du": 460,
      "uru": 461,
      "fila": 462,
      "cogo": 463,
      "jɛ": 464,
      "dugu": 465,
      "kɛmɛ": 466,
      "fo": 467,
      "tan": 468,
      "lɔ": 469,
      "ci": 470,
      "den": 471,
      "cɛ": 472,
      "ban": 473,
      "th": 474,
      "wo": 475,
      "su": 476,
      "jamana": 477,
      "lima": 478,
      "kelen": 479,
      "baara": 480,
      "rĩ": 481,
      "yi": 482,
      "ɔgɔn": 483,
      "bolo": 484,
      "sira": 485,
      "kulu": 486,
      "gin": 487,
      "saba": 488,
      "do": 489,
      "tu": 490,
      "lɛn": 491,
      "kɔnɔn": 492,
      "tɔn": 493,
      "walima": 494,
      "ɲɔgɔn": 495,
      "waga": 496,
      "cama": 497,
      "bɛɛ": 498,
      "sin": 499,
      "bɛn": 500,
      "yɛlɛ": 501,
      "seka": 502,
      "kolo": 503,
      "ne": 504,
      "unw": 505,
      "minɛ": 506,
      "dɔw": 507,
      "yɛrɛ": 508,
      "nɛ": 509,
      "kɛlɛn": 510,
      "rɛn": 511,
      "kɔrɔ": 512,
      "bu": 513,
      "don": 514,
      "sigi": 515,
      "fara": 516,
      "kur": 517,
      "nka": 518,
      "we": 519,
      "kalan": 520,
      "bila": 521,
      "ɛrɛ": 522,
      "sen": 523,
      "lon": 524,
      "dan": 525,
      "taa": 526,
      "kɔnɔntɔn": 527,
      "mara": 528,
      "ɔrɔn": 529,
      "inafɔ": 530,
      "minunw": 531,
      "ran": 532,
      "kɛla": 533,
      "yɛn": 534,
      "tɛmɛ": 535,
      "tɔ": 536,
      "sanfɛ": 537,
      "kɛlɛ": 538,
      "duuru": 539,
      "me": 540,
      "cogoya": 541,
      "yɛlɛma": 542,
      "pa": 543,
      "ɲin": 544,
      "fɔlɔ": 545,
      "jɔ": 546,
      "zi": 547,
      "ana": 548,
      "lajɛ": 549,
      "wu": 550,
      "mɔgɔw": 551,
      "camaw": 552,
      "nu": 553,
      "wɛrɛ": 554,
      "boli": 555,
      "er": 556,
      "ben": 557,
      "pi": 558,
      "kɛra": 559,
      "ɲɛn": 560,
      "nĩ": 561,
      "tile": 562,
      "ɲu": 563,
      "no": 564,
      "kuma": 565,
      "wɔrɔ": 566,
      "unu": 567,
      "gan": 568,
      "dilan": 569,
      "jan": 570,
      "yan": 571,
      "po": 572,
      "kĩ": 573,
      "sɛbɛn": 574,
      "yala": 575,
      "kana": 576,
      "sɛɛ": 577,
      "ge": 578,
      "wala": 579,
      "sɛɛgin": 580,
      "fe": 581,
      "ali": 582,
      "naani": 583,
      "gĩ": 584,
      "mina": 585,
      "lila": 586,
      "bana": 587,
      "kɛrɛn": 588,
      "kuru": 589,
      "baw": 590,
      "aw": 591,
      "haki": 592,
      "tigi": 593,
      "pan": 594,
      "fɛnw": 595,
      "kura": 596,
      "ugan": 597,
      "walasa": 598,
      "tini": 599,
      "bali": 600,
      "ɲuman": 601,
      "niw": 602,
      "mo": 603,
      "minnu": 604,
      "tigɛ": 605,
      "kuna": 606,
      "ala": 607,
      "kɔfɛ": 608,
      "nen": 609,
      "tugu": 610,
      "jate": 611,
      "jɔn": 612,
      "tuma": 613,
      "kalo": 614,
      "bena": 615,
      "mũ": 616,
      "wò": 617,
      "wòlon": 618,
      "ch": 619,
      "fari": 620,
      "kũ": 621,
      "bɔn": 622,
      "sɛbɛ": 623,
      "ɲini": 624,
      "sɔn": 625,
      "dɛ": 626,
      "wi": 627,
      "dɔrɔn": 628,
      "riya": 629,
      "ɲinin": 630,
      "fitini": 631,
      "kɛnɛ": 632,
      "dama": 633,
      "rĩa": 634,
      "jugu": 635,
      "riki": 636,
      "kabɔ": 637,
      "liw": 638,
      "wale": 639,
      "kɛrɛ": 640,
      "sɛgɛ": 641,
      "kala": 642,
      "fɛnɛ": 643,
      "muso": 644,
      "ɲa": 645,
      "ze": 646,
      "caman": 647,
      "denw": 648,
      "mɔ": 649,
      "mugan": 650,
      "anw": 651,
      "gu": 652,
      "sara": 653,
      "ju": 654,
      "woya": 655,
      "tɔgɔ": 656,
      "yɔrɔw": 657,
      "diɲɛ": 658,
      "rũ": 659,
      "wula": 660,
      "fu": 661,
      "jo": 662,
      "pu": 663,
      "mĩ": 664,
      "jira": 665,
      "fili": 666,
      "gɛrɛ": 667,
      "yɔn": 668,
      "za": 669,
      "mɛn": 670,
      "gũ": 671,
      "ɲi": 672,
      "dɔni": 673,
      "yo": 674,
      "farikolo": 675,
      "foni": 676,
      "leno": 677,
      "sariya": 678,
      "bili": 679,
      "wɛrɛw": 680,
      "dũ": 681,
      "mani": 682,
      "wele": 683,
      "daminɛ": 684,
      "iri": 685,
      "gɛlɛ": 686,
      "bin": 687,
      "ce": 688,
      "ere": 689,
      "sɔ": 690,
      "ɔri": 691,
      "wòlonwula": 692,
      "dugukolo": 693,
      "lɔn": 694,
      "ho": 695,
      "hi": 696,
      "bele": 697,
      "fiyɛn": 698,
      "hakɛ": 699,
      "zu": 700,
      "st": 701,
      "thi": 702,
      "tama": 703,
      "lala": 704,
      "kɛlaw": 705,
      "nan": 706,
      "kɔkɔ": 707,
      "yanfan": 708,
      "inĩ": 709,
      "sugu": 710,
      "dɔgɔ": 711,
      "sɛn": 712,
      "lina": 713,
      "nɔn": 714,
      "kisɛ": 715,
      "kodɔn": 716,
      "ru": 717,
      "munu": 718,
      "bisaba": 719,
      "nɛgɛ": 720,
      "dɛmɛ": 721,
      "dumu": 722,
      "vi": 723,
      "jaa": 724,
      "lajɛli": 725,
      "lenw": 726,
      "masa": 727,
      "ɲɛmɔgɔ": 728,
      "ɲɛnɛ": 729,
      "dun": 730,
      "pe": 731,
      "nafan": 732,
      "tũ": 733,
      "ɲɛsin": 734,
      "kɛyɔrɔ": 735,
      "bɔra": 736,
      "tiri": 737,
      "cia": 738,
      "tha": 739,
      "falen": 740,
      "baga": 741,
      "mini": 742,
      "son": 743,
      "nɔgɔ": 744,
      "mwe": 745,
      "minɛn": 746,
      "law": 747,
      "kosɛbɛ": 748,
      "fanga": 749,
      "suma": 750,
      "laban": 751,
      ").": 752,
      "hali": 753,
      "lɔlɔ": 754,
      "land": 755,
      "hakilina": 756,
      "nati": 757,
      "ria": 758,
      "waatidɔw": 759,
      "balo": 760,
      "cɛn": 761,
      "segin": 762,
      "yira": 763,
      "buru": 764,
      "dumuni": 765,
      "siri": 766,
      "kaw": 767,
      "jɛn": 768,
      "ɲɛna": 769,
      "kurun": 770,
      "beyi": 771,
      "urun": 772,
      "siw": 773,
      "kunko": 774,
      "jateminɛ": 775,
      "mako": 776,
      "mɔbili": 777,
      "misɛ": 778,
      "kili": 779,
      "nɔ": 780,
      "kari": 781,
      "tali": 782,
      "qu": 783,
      "jaabi": 784,
      "tɔw": 785,
      "kunafoni": 786,
      "sinsin": 787,
      "sababu": 788,
      "tabolo": 789,
      "jigin": 790,
      "gɛrɛfɛ": 791,
      "ton": 792,
      "cakɛ": 793,
      "teli": 794,
      "ame": 795,
      "yen": 796,
      "thĩ": 797,
      "maw": 798,
      "he": 799,
      "kon": 800,
      "iti": 801,
      "bara": 802,
      "bagan": 803,
      "ola": 804,
      "cakɛda": 805,
      "rin": 806,
      "siyɔn": 807,
      "lakana": 808,
      "bina": 809,
      "riw": 810,
      "kɔnɔna": 811,
      "gun": 812,
      "faga": 813,
      "kɛrɛnkɛrɛ": 814,
      "jigi": 815,
      "hakili": 816,
      "the": 817,
      "ransi": 818,
      "wari": 819,
      "yani": 820,
      "fura": 821,
      "jamanaw": 822,
      "biduuru": 823,
      "binaani": 824,
      "inɛ": 825,
      "kɛli": 826,
      "kɛrɛnkɛrɛni": 827,
      "mun": 828,
      "mili": 829,
      "kilo": 830,
      "biwɔrɔ": 831,
      "ama": 832,
      "tara": 833,
      "gɔn": 834,
      "gɛn": 835,
      "bari": 836,
      "baaraw": 837,
      "lize": 838,
      "maara": 839,
      "mɛtiri": 840,
      "surun": 841,
      "kɔrɔn": 842,
      "senfɛ": 843,
      "̀n": 844,
      "dala": 845,
      "sabu": 846,
      "ɛti": 847,
      "yee": 848,
      "gɛlɛya": 849,
      "filan": 850,
      "ar": 851,
      "woyasi": 852,
      "ve": 853,
      "tari": 854,
      "kama": 855,
      "cio": 856,
      "sɛgɛsɛgɛ": 857,
      "tĩ": 858,
      "ene": 859,
      "fɔli": 860,
      "aka": 861,
      "kunba": 862,
      "sh": 863,
      "jiri": 864,
      "woro": 865,
      "ɛntɛ": 866,
      "lase": 867,
      "jama": 868,
      "siki": 869,
      "bon": 870,
      "fana": 871,
      "kaɲɛ": 872,
      "kuluw": 873,
      "ɲɔ": 874,
      "siraw": 875,
      "ɔni": 876,
      "minw": 877,
      "lin": 878,
      "gɔ": 879,
      "kunna": 880,
      "ck": 881,
      "minna": 882,
      "kow": 883,
      "kanw": 884,
      "ɲan": 885,
      "mari": 886,
      "denmisɛ": 887,
      "itilize": 888,
      "kin": 889,
      "tɛn": 890,
      "jɔnjɔn": 891,
      "juru": 892,
      "ameriki": 893,
      "bikɔnɔntɔn": 894,
      "feere": 895,
      "al": 896,
      "..": 897,
      "batɔn": 898,
      "yeelen": 899,
      "suguya": 900,
      "baa": 901,
      "foro": 902,
      "is": 903,
      "pɔn": 904,
      "ter": 905,
      "́n": 906,
      "nana": 907,
      "sama": 908,
      "kɔkɔji": 909,
      "sisan": 910,
      "fin": 911,
      "worodugu": 912,
      "gafe": 913,
      "tin": 914,
      "sun": 915,
      "baarakɛ": 916,
      "woyazi": 917,
      "tumamina": 918,
      "ũn": 919,
      "kɛrɛnkɛrɛniyala": 920,
      "ona": 921,
      "jɔyɔrɔ": 922,
      "bisɛɛgin": 923,
      "kɛnɛya": 924,
      "baliya": 925,
      "duguma": 926,
      "sili": 927,
      "ɔpu": 928,
      "daw": 929,
      "fitiniw": 930,
      "han": 931,
      "pɔri": 932,
      "wĩ": 933,
      "biwòlon": 934,
      "biwòlonfila": 935,
      "tiki": 936,
      "fini": 937,
      "tɛri": 938,
      "taw": 939,
      "har": 940,
      "rani": 941,
      "faa": 942,
      "komi": 943,
      "kɛrɛnkɛrɛn": 944,
      "kara": 945,
      "lani": 946,
      "taara": 947,
      "tilan": 948,
      "kali": 949,
      "ɛntɛrɛn": 950,
      "nɛn": 951,
      "tikɛ": 952,
      "waari": 953,
      "diya": 954,
      "labɛn": 955,
      "men": 956,
      "que": 957,
      "adama": 958,
      "kalanso": 959,
      "kab": 960,
      "farati": 961,
      "tilen": 962,
      "manw": 963,
      "cɛw": 964,
      "alima": 965,
      "yɛlɛmali": 966,
      "kasara": 967,
      "pankuru": 968,
      "yiri": 969,
      "ɛntɛrɛnɛti": 970,
      "jukɔrɔ": 971,
      "zuye": 972,
      "laɲini": 973,
      "ron": 974,
      "misa": 975,
      "taga": 976,
      "famu": 977,
      "tɛmɛn": 978,
      "kabini": 979,
      "alimaɲi": 980,
      "je": 981,
      "bɔlɔlɔ": 982,
      "tho": 983,
      "wan": 984,
      "kunbalan": 985,
      "ale": 986,
      "ry": 987,
      "sow": 988,
      "siyɛn": 989,
      "pankurun": 990,
      "ɲɔgɔndan": 991,
      "erɔpu": 992,
      "kɔlɔlɔ": 993,
      "kanu": 994,
      "hin": 995,
      "faransi": 996,
      "yali": 997,
      "ɲɛɲini": 998,
      "din": 999,
      "sera": 1000,
      "ɲɛnajɛ": 1001,
      "kodɔnlen": 1002,
      "cogoyala": 1003,
      "ninunw": 1004,
      "hu": 1005,
      "tiɲɛ": 1006,
      ".\"": 1007,
      "uni": 1008,
      "olu": 1009,
      "sɛgɛsɛgɛli": 1010,
      "sanga": 1011,
      "tasuma": 1012,
      "taama": 1013,
      "baana": 1014,
      "bere": 1015,
      "dili": 1016,
      "belebele": 1017,
      "miri": 1018,
      "''": 1019,
      "sini": 1020,
      "walema": 1021,
      "rwo": 1022,
      "tariku": 1023,
      "tɔrɔ": 1024,
      "va": 1025,
      "bɔli": 1026,
      "taki": 1027,
      "es": 1028,
      "kalata": 1029,
      "nunu": 1030,
      "ɲuma": 1031,
      "taabolo": 1032,
      "beka": 1033,
      "hĩ": 1034,
      "ingĩ": 1035,
      "kɔkɔdugu": 1036,
      "poli": 1037,
      "datugu": 1038,
      "jɛkulu": 1039,
      "kɛn": 1040,
      "ire": 1041,
      "pɛ": 1042,
      "rt": 1043,
      "kwa": 1044,
      "maa": 1045,
      "ly": 1046,
      "sta": 1047,
      "funu": 1048,
      "miliyɔn": 1049,
      "fiɲɛ": 1050,
      "siyɛ": 1051,
      "dɔkɔ": 1052,
      "ugun": 1053,
      "can": 1054,
      "bange": 1055,
      "maarayɔrɔ": 1056,
      "andũ": 1057,
      "sigiyɔrɔ": 1058,
      "kɛlɛbolo": 1059,
      "bũ": 1060,
      "kɛrɛfɛ": 1061,
      "wolo": 1062,
      "mũno": 1063,
      "ny": 1064,
      "us": 1065,
      "gosi": 1066,
      "tur": 1067,
      "tani": 1068,
      "au": 1069,
      "siran": 1070,
      "nɛnɛ": 1071,
      "diyɛn": 1072,
      "gili": 1073,
      "one": 1074,
      "ɲɛmɔgɔw": 1075,
      "bato": 1076,
      "sigida": 1077,
      "zan": 1078,
      "siya": 1079,
      "fɔlɔfɔlɔ": 1080,
      "eno": 1081,
      "waatila": 1082,
      "fɛɛrɛ": 1083,
      "waaticama": 1084,
      "tulɔn": 1085,
      "wasa": 1086,
      "kunnafoni": 1087,
      "teliya": 1088,
      "tɛrɛ": 1089,
      "wara": 1090,
      "ver": 1091,
      "ɲɔn": 1092,
      "cɛman": 1093,
      "tuguni": 1094,
      "mugu": 1095,
      "siti": 1096,
      "dina": 1097,
      "lle": 1098,
      "à": 1099,
      "jɔli": 1100,
      "nafa": 1101,
      "\".": 1102,
      "furu": 1103,
      "latigɛ": 1104,
      "bolila": 1105,
      "dara": 1106,
      "nor": 1107,
      "ɲɔgɔnkan": 1108,
      "waleya": 1109,
      "fagan": 1110,
      "hũ": 1111,
      "camana": 1112,
      "baarakɛyɔrɔ": 1113,
      "kilomɛtiri": 1114,
      "ũndũ": 1115,
      "neno": 1116,
      "goya": 1117,
      "kiri": 1118,
      "zɛ": 1119,
      "),": 1120,
      "mali": 1121,
      "per": 1122,
      "sugan": 1123,
      "ts": 1124,
      "foyi": 1125,
      "wili": 1126,
      "ing": 1127,
      "musow": 1128,
      "yeli": 1129,
      "dogo": 1130,
      "gre": 1131,
      "fɛrɛ": 1132,
      "foto": 1133,
      "zapɔn": 1134,
      "sie": 1135,
      "taɲɛ": 1136,
      "mankan": 1137,
      "ɲinini": 1138,
      "daga": 1139,
      "thu": 1140,
      "tɛmɛni": 1141,
      "dilani": 1142,
      "ũrĩa": 1143,
      "kĩa": 1144,
      "foroba": 1145,
      "tele": 1146,
      "laki": 1147,
      "sogo": 1148,
      "minɛna": 1149,
      "sɔnni": 1150,
      "fɔni": 1151,
      "dɔgɔya": 1152,
      "sɔrɔli": 1153,
      "mɛtɛrɛ": 1154,
      "adamaden": 1155,
      "ari": 1156,
      "gɛlɛn": 1157,
      "turi": 1158,
      "kɔrɔw": 1159,
      "taji": 1160,
      "kakan": 1161,
      "stra": 1162,
      "niya": 1163,
      "bolili": 1164,
      "sani": 1165,
      "ɲɛnɛbɔ": 1166,
      "ɲɔgɔna": 1167,
      "kaba": 1168,
      "ren": 1169,
      "baya": 1170,
      "uma": 1171,
      "nto": 1172,
      "tila": 1173,
      "likɛ": 1174,
      "\",": 1175,
      "banakisɛ": 1176,
      "ɛsi": 1177,
      "ninnu": 1178,
      "ll": 1179,
      "las": 1180,
      "kɛlɛkɛ": 1181,
      "ai": 1182,
      "rie": 1183,
      "af": 1184,
      "biri": 1185,
      "deli": 1186,
      "dɔla": 1187,
      "famuya": 1188,
      "kaso": 1189,
      "nɛzi": 1190,
      "ɲɛfɔ": 1191,
      "jon": 1192,
      "cari": 1193,
      "misɛn": 1194,
      "masakɛ": 1195,
      "bibi": 1196,
      "seko": 1197,
      "siyɛkili": 1198,
      "yɔrɔla": 1199,
      "wɛ": 1200,
      "sek": 1201,
      "yɔrɔmina": 1202,
      "denmisɛni": 1203,
      "kalandenw": 1204,
      "zo": 1205,
      "kaburu": 1206,
      "labaara": 1207,
      "gh": 1208,
      "sila": 1209,
      "fanba": 1210,
      "dolo": 1211,
      "hɔrɔn": 1212,
      "gon": 1213,
      "janya": 1214,
      "yera": 1215,
      "itali": 1216,
      "uro": 1217,
      "gini": 1218,
      "bala": 1219,
      "tigiw": 1220,
      "mp": 1221,
      "mbo": 1222,
      "bre": 1223,
      "angi": 1224,
      "nison": 1225,
      "burukalo": 1226,
      "tɛna": 1227,
      "jɔlen": 1228,
      "gen": 1229,
      "ili": 1230,
      "gran": 1231,
      "polo": 1232,
      "lá": 1233,
      "waatiw": 1234,
      "filanan": 1235,
      "barani": 1236,
      "rɔ": 1237,
      "ula": 1238,
      "diinɛ": 1239,
      "juguya": 1240,
      "damani": 1241,
      "denmisɛniw": 1242,
      "filɛ": 1243,
      "ten": 1244,
      "cogomina": 1245,
      "bũrũ": 1246,
      "atĩ": 1247,
      "pɛrɛn": 1248,
      "daɲɛ": 1249,
      "cha": 1250,
      "lanw": 1251,
      "kɔlɔ": 1252,
      "et": 1253,
      "toro": 1254,
      "gana": 1255,
      "dimi": 1256,
      "mba": 1257,
      "nɔrɔ": 1258,
      "kuraw": 1259,
      "tala": 1260,
      "yɛrɛma": 1261,
      "kiiri": 1262,
      "bɔlen": 1263,
      "bawo": 1264,
      "boloda": 1265,
      "sugandi": 1266,
      "mb": 1267,
      "dinatɛri": 1268,
      "gani": 1269,
      "minisiri": 1270,
      "rk": 1271,
      "filimu": 1272,
      "lasi": 1273,
      "kilomɛtɛrɛ": 1274,
      "sufɛ": 1275,
      "dola": 1276,
      "new": 1277,
      "ɛsipa": 1278,
      "and": 1279,
      "tic": 1280,
      "kri": 1281,
      "inw": 1282,
      "camancɛ": 1283,
      "uka": 1284,
      "stan": 1285,
      "tiyɛn": 1286,
      "turu": 1287,
      "sɛri": 1288,
      "ira": 1289,
      "nɛgɛjuru": 1290,
      "ɲɛnɛjɛ": 1291,
      "caama": 1292,
      "ɲɔgɔncɛ": 1293,
      "two": 1294,
      "folo": 1295,
      "tirɛn": 1296,
      "kĩrĩ": 1297,
      "bɛla": 1298,
      "pira": 1299,
      "jɔna": 1300,
      "waaticamana": 1301,
      "thĩinĩ": 1302,
      "shi": 1303,
      "koro": 1304,
      "kire": 1305,
      "kɔkan": 1306,
      "kolon": 1307,
      "dɔnko": 1308,
      "danfara": 1309,
      "tilebin": 1310,
      "wɔ": 1311,
      "cen": 1312,
      "senkan": 1313,
      "yé": 1314,
      "baganw": 1315,
      "ada": 1316,
      "of": 1317,
      "sɛnɛ": 1318,
      "yɛrɛyɛrɛ": 1319,
      "rd": 1320,
      "kalama": 1321,
      "ɲaga": 1322,
      "bagaw": 1323,
      "fun": 1324,
      "ty": 1325,
      "kɛlen": 1326,
      "dɔnni": 1327,
      "giri": 1328,
      "lɛri": 1329,
      "kofɔ": 1330,
      "yɛrɛmahɔrɔn": 1331,
      "gwa": 1332,
      "kɔni": 1333,
      "tro": 1334,
      "fanw": 1335,
      "kelenw": 1336,
      "mon": 1337,
      "foniw": 1338,
      "sɔbɛ": 1339,
      "sanfɛla": 1340,
      "filana": 1341,
      "tike": 1342,
      "hn": 1343,
      "john": 1344,
      "jagoya": 1345,
      "faran": 1346,
      "bɔnda": 1347,
      "pariki": 1348,
      "kɔsɛbɛ": 1349,
      "sɛbɛni": 1350,
      "fur": 1351,
      "dɔkɔtɔrɔ": 1352,
      "nene": 1353,
      "gwo": 1354,
      "kĩu": 1355,
      "pulu": 1356,
      "kɛcogo": 1357,
      "pirami": 1358,
      "ɲɔgɔnya": 1359,
      "jara": 1360,
      "tigila": 1361,
      "lafi": 1362,
      "as": 1363,
      "tra": 1364,
      "musa": 1365,
      "maya": 1366,
      "nali": 1367,
      "les": 1368,
      "fere": 1369,
      "jɛnsɛn": 1370,
      "dalen": 1371,
      "ber": 1372,
      "dɛsɛ": 1373,
      "kungo": 1374,
      "sari": 1375,
      "ɲɛfɛ": 1376,
      "jaw": 1377,
      "alisa": 1378,
      "yama": 1379,
      "tiw": 1380,
      "bada": 1381,
      "daminɛna": 1382,
      "sco": 1383,
      "wen": 1384,
      "kà": 1385,
      "pani": 1386,
      "bur": 1387,
      "kɔgɔ": 1388,
      "tayi": 1389,
      "sch": 1390,
      "rio": 1391,
      "damatɛmɛ": 1392,
      "laɲinin": 1393,
      "jijukɔrɔ": 1394,
      "marayɔrɔ": 1395,
      "sigilen": 1396,
      "green": 1397,
      "ũcio": 1398,
      "mweri": 1399,
      "kunkokɔnɔ": 1400,
      "ɲɔkɔn": 1401,
      "arĩa": 1402,
      "way": 1403,
      "fɛka": 1404,
      "tolon": 1405,
      "gĩrĩ": 1406,
      "kũrĩ": 1407,
      "yũ": 1408,
      "irie": 1409,
      "waatimina": 1410,
      "nɔgɔya": 1411,
      "bũrũri": 1412,
      "piramidi": 1413,
      "siɲɛ": 1414,
      "kabɔn": 1415,
      "makan": 1416,
      "firiki": 1417,
      "hon": 1418,
      "kabila": 1419,
      "gansan": 1420,
      "tugun": 1421,
      "teni": 1422,
      "labila": 1423,
      "donna": 1424,
      "lun": 1425,
      "lafiya": 1426,
      "kunkolo": 1427,
      "segi": 1428,
      "telefɔni": 1429,
      "nia": 1430,
      "dayɛlɛ": 1431,
      "cu": 1432,
      "ine": 1433,
      "kunu": 1434,
      "ste": 1435,
      "kɔrɔlen": 1436,
      "pari": 1437,
      "mobili": 1438,
      "cɛmancɛ": 1439,
      "sariyaw": 1440,
      "muru": 1441,
      "tilema": 1442,
      "...": 1443,
      "jaman": 1444,
      "bɛlɛ": 1445,
      "kuntigi": 1446,
      "landi": 1447,
      "sɔgɔ": 1448,
      "ss": 1449,
      "gunw": 1450,
      "ld": 1451,
      "tion": 1452,
      "gala": 1453,
      "siraba": 1454,
      "jɛgɛ": 1455,
      "der": 1456,
      "yɛrɛmahɔrɔnya": 1457,
      "lli": 1458,
      "pen": 1459,
      "fina": 1460,
      "hen": 1461,
      "pp": 1462,
      "cogow": 1463,
      "ɲɔgɔ": 1464,
      "fen": 1465,
      "suku": 1466,
      "sarada": 1467,
      "eta": 1468,
      "mansin": 1469,
      "janw": 1470,
      "char": 1471,
      "yezu": 1472,
      "nɔngɔn": 1473,
      "misali": 1474,
      "ley": 1475,
      "by": 1476,
      "lini": 1477,
      "takisi": 1478,
      "kɔsɔbɛ": 1479,
      "kɛni": 1480,
      "gilasi": 1481,
      "kunafoniw": 1482,
      "nunuw": 1483,
      "island": 1484,
      "kolɔn": 1485,
      "kuuma": 1486,
      "waatibɛɛ": 1487,
      "maũndũ": 1488,
      "ngĩ": 1489,
      "nzɛ": 1490,
      "rĩu": 1491,
      "juguma": 1492,
      "bɛnkan": 1493,
      "kumu": 1494,
      "fiyɛnw": 1495,
      "dɔnkili": 1496,
      "run": 1497,
      "sariyasen": 1498,
      "ori": 1499,
      "sisi": 1500,
      "í": 1501,
      "yɛri": 1502,
      "tora": 1503,
      "farala": 1504,
      "furakɛli": 1505,
      "nege": 1506,
      "ɲɔgɔnna": 1507,
      "lakodɔn": 1508,
      "siratigɛ": 1509,
      "politiki": 1510,
      "wulu": 1511,
      "janto": 1512,
      "ɲana": 1513,
      "or": 1514,
      "fɛrɛn": 1515,
      "gne": 1516,
      "ɲɛfɔli": 1517,
      "ɔridinatɛri": 1518,
      "baaw": 1519,
      "ɲininkali": 1520,
      "mbi": 1521,
      "farikoloɲɛnajɛ": 1522,
      "bayɛlɛma": 1523,
      "yon": 1524,
      "cin": 1525,
      "kisɛw": 1526,
      "ladili": 1527,
      "masurun": 1528,
      "gira": 1529,
      "uti": 1530,
      "farafina": 1531,
      "bɛ́": 1532,
      "wotoro": 1533,
      "aya": 1534,
      "jɛlen": 1535,
      "kɛnɛkan": 1536,
      "tabi": 1537,
      "kɔrɔnyanfan": 1538,
      "yasa": 1539,
      "nisondiya": 1540,
      "mukan": 1541,
      "dinɛ": 1542,
      "samara": 1543,
      "kisi": 1544,
      "golo": 1545,
      "ladala": 1546,
      "wasaden": 1547,
      "digɛn": 1548,
      "tamasiyɛn": 1549,
      "austra": 1550,
      "sanbɛlɛ": 1551,
      "munuw": 1552,
      "unis": 1553,
      "north": 1554,
      "kaɲi": 1555,
      "fɔlila": 1556,
      "kɔrɔba": 1557,
      "farikoloɲɛnɛjɛ": 1558,
      "suru": 1559,
      "cogola": 1560,
      "tanpulu": 1561,
      "wiza": 1562,
      "ruya": 1563,
      "bulu": 1564,
      "nɔrɔmali": 1565,
      "mbere": 1566,
      "ĩrĩa": 1567,
      "ano": 1568,
      "gia": 1569,
      "yɛlɛn": 1570,
      "bolonɔn": 1571,
      "farikolobɔn": 1572,
      "otɛ": 1573,
      "thia": 1574,
      "ĩte": 1575,
      "ciĩ": 1576,
      "mà": 1577,
      "nzɛbɛn": 1578,
      "jalaki": 1579,
      "kalanli": 1580,
      "pɔ": 1581,
      "iria": 1582,
      "ndũ": 1583,
      "jakuma": 1584,
      "fasa": 1585,
      "kani": 1586,
      "ami": 1587,
      "nye": 1588,
      "sankolo": 1589,
      "ɲininka": 1590,
      "tiya": 1591,
      "tow": 1592,
      "banan": 1593,
      "gari": 1594,
      "likɛla": 1595,
      "joli": 1596,
      "saya": 1597,
      "dɔgɔkun": 1598,
      "sanu": 1599,
      "yara": 1600,
      "nɔna": 1601,
      "tɛmɛnen": 1602,
      "mar": 1603,
      "kanni": 1604,
      "cira": 1605,
      "baarakɛla": 1606,
      "saman": 1607,
      "kɔli": 1608,
      "cɛla": 1609,
      "dilanni": 1610,
      "kelenna": 1611,
      "ɲɛtaa": 1612,
      "sou": 1613,
      "ol": 1614,
      "caya": 1615,
      "dabɔra": 1616,
      "kuntilen": 1617,
      "adamadenw": 1618,
      "ɲe": 1619,
      "juguw": 1620,
      "ɲinina": 1621,
      "wani": 1622,
      "maga": 1623,
      "bonya": 1624,
      "cili": 1625,
      "yelen": 1626,
      "wali": 1627,
      "angilɛ": 1628,
      "mayɔrɔ": 1629,
      "kurunw": 1630,
      "fran": 1631,
      "mm": 1632,
      "wor": 1633,
      "ɲɔli": 1634,
      "ven": 1635,
      "soro": 1636,
      "qua": 1637,
      "kɛrɛnkɛrɛnnen": 1638,
      "bel": 1639,
      "sɛbɛnni": 1640,
      "tie": 1641,
      "cana": 1642,
      "roman": 1643,
      "sanfɛkalanso": 1644,
      "sɔrɔla": 1645,
      "olɛn": 1646,
      "tio": 1647,
      "bese": 1648,
      "ney": 1649,
      "pire": 1650,
      "minnuw": 1651,
      "ɛndi": 1652,
      "sea": 1653,
      "kuruni": 1654,
      "turisiw": 1655,
      "olɛnpi": 1656,
      "dur": 1657,
      "ic": 1658,
      "inde": 1659,
      "yesu": 1660,
      "wai": 1661,
      "fiti": 1662,
      "tulon": 1663,
      "mɔbi": 1664,
      "lamini": 1665,
      "dolari": 1666,
      "ima": 1667,
      "jabarani": 1668,
      "waatijan": 1669,
      "zuwe": 1670,
      "labɔ": 1671,
      "hakɛya": 1672,
      "meriki": 1673,
      "ransipɔri": 1674,
      "tiransipɔri": 1675,
      "kunbɛ": 1676,
      "sɛriwi": 1677,
      "mwĩ": 1678,
      "thũ": 1679,
      "wɛrɛla": 1680,
      "nĩma": 1681,
      "kanada": 1682,
      "nɔgɔyala": 1683,
      "etats": 1684,
      "asi": 1685,
      "thon": 1686,
      "tɛmɛli": 1687,
      "tũra": 1688,
      "jĩ": 1689,
      "farafin": 1690,
      "ĩrĩ": 1691,
      "guo": 1692,
      "binna": 1693,
      "thonde": 1694,
      "wuli": 1695,
      "bɔɲan": 1696,
      "kumasen": 1697,
      "gere": 1698,
      "afiriki": 1699,
      "nya": 1700,
      "doro": 1701,
      "rika": 1702,
      "sii": 1703,
      "at": 1704,
      "duguw": 1705,
      "laha": 1706,
      "poro": 1707,
      "sigili": 1708,
      "nafolo": 1709,
      "latan": 1710,
      "tri": 1711,
      "toli": 1712,
      "nisɔn": 1713,
      "yamaruya": 1714,
      "ken": 1715,
      "balan": 1716,
      "che": 1717,
      "ntolatan": 1718,
      "á": 1719,
      "fɔlɔw": 1720,
      "nafama": 1721,
      "funteni": 1722,
      "faamu": 1723,
      "bulon": 1724,
      "lla": 1725,
      "sika": 1726,
      "girin": 1727,
      "kaban": 1728,
      "sukun": 1729,
      "ɲɛmɔgɔya": 1730,
      "senw": 1731,
      "para": 1732,
      "jalen": 1733,
      "teri": 1734,
      "yɔrɔjan": 1735,
      "sinsan": 1736,
      "mogo": 1737,
      "tilala": 1738,
      "bul": 1739,
      "nɔgɔn": 1740,
      "kha": 1741,
      "tal": 1742,
      "bii": 1743,
      "faralen": 1744,
      "piri": 1745,
      "tugulen": 1746,
      "tes": 1747,
      "medi": 1748,
      "ng": 1749,
      "mada": 1750,
      "fɔra": 1751,
      "sigini": 1752,
      "south": 1753,
      "bolifɛn": 1754,
      "dumuniw": 1755,
      "musoya": 1756,
      "nani": 1757,
      "bani": 1758,
      "talan": 1759,
      "gua": 1760,
      "pho": 1761,
      "jikuru": 1762,
      "banabaa": 1763,
      "jabi": 1764,
      "dani": 1765,
      "kadi": 1766,
      "marisi": 1767,
      "11": 1768,
      "dr": 1769,
      "fer": 1770,
      "marali": 1771,
      "pasi": 1772,
      "minan": 1773,
      "hakilinaw": 1774,
      "baro": 1775,
      "ɛsipaɲɔli": 1776,
      "rongo": 1777,
      "dɔngɔn": 1778,
      "vid": 1779,
      "lakanatigila": 1780,
      "iran": 1781,
      "sebaya": 1782,
      "lande": 1783,
      "bakuru": 1784,
      "maraso": 1785,
      "ɲanajɛ": 1786,
      "mugujugu": 1787,
      "gs": 1788,
      "wasabu": 1789,
      "kono": 1790,
      "kalafili": 1791,
      "tanni": 1792,
      "sud": 1793,
      "ginya": 1794,
      "miniti": 1795,
      "kariti": 1796,
      "gos": 1797,
      "jɛmukan": 1798,
      "yɛlɛli": 1799,
      "ino": 1800,
      "australi": 1801,
      "tagne": 1802,
      "woyase": 1803,
      "greenland": 1804,
      "api": 1805,
      "lozi": 1806,
      "grande": 1807,
      "seli": 1808,
      "dɔniya": 1809,
      "ɲɛnɛbɔba": 1810,
      "tirɛ": 1811,
      "degi": 1812,
      "kaɲɛka": 1813,
      "kunbalanw": 1814,
      "mr": 1815,
      "tango": 1816,
      "cirĩ": 1817,
      "thitango": 1818,
      "nɔgɔmani": 1819,
      "kɛraw": 1820,
      "sɔnna": 1821,
      "teliyala": 1822,
      "natili": 1823,
      "kwĩ": 1824,
      "gĩa": 1825,
      "misalila": 1826,
      "ũa": 1827,
      "sirileno": 1828,
      "misɛni": 1829,
      "icũa": 1830,
      "bla": 1831,
      "fɔlen": 1832,
      "tigiya": 1833,
      "wolon": 1834,
      "tambo": 1835,
      "nk": 1836,
      "mĩtambo": 1837,
      "bilen": 1838,
      "dunan": 1839,
      "sp": 1840,
      "bɛrɛ": 1841,
      "nyamũ": 1842,
      "laka": 1843,
      "bá": 1844,
      "kojugu": 1845,
      "furan": 1846,
      "dira": 1847,
      "bilali": 1848,
      "kɔ́": 1849,
      "uga": 1850,
      "mas": 1851,
      "ciyɛn": 1852,
      "dɔnnen": 1853,
      "suka": 1854,
      "con": 1855,
      "minɛnw": 1856,
      "kora": 1857,
      "dá": 1858,
      "tili": 1859,
      "finiw": 1860,
      "pro": 1861,
      "ká": 1862,
      "gara": 1863,
      "lako": 1864,
      "bile": 1865,
      "jamanakuntigi": 1866,
      "bɔla": 1867,
      "sɛbɛnw": 1868,
      "el": 1869,
      "jiginni": 1870,
      "goni": 1871,
      "ŋunu": 1872,
      "miiri": 1873,
      "ii": 1874,
      "ad": 1875,
      "paki": 1876,
      "faraw": 1877,
      "rali": 1878,
      "laseli": 1879,
      "kore": 1880,
      "car": 1881,
      "bilara": 1882,
      "munumunu": 1883,
      "soko": 1884,
      "jɔra": 1885,
      "laada": 1886,
      "van": 1887,
      "mati": 1888,
      "ata": 1889,
      "ph": 1890,
      "kɛɲɛ": 1891,
      "dar": 1892,
      "waraw": 1893,
      "soba": 1894,
      "pɛn": 1895,
      "usa": 1896,
      "uve": 1897,
      "kuluwo": 1898,
      "ins": 1899,
      "bata": 1900,
      "world": 1901,
      "tte": 1902,
      "eti": 1903,
      "bal": 1904,
      "del": 1905,
      "tɔla": 1906,
      "suguw": 1907,
      "talikɛ": 1908,
      "nie": 1909,
      "fal": 1910,
      "sans": 1911,
      "batɔ": 1912,
      "sɔkɔ": 1913,
      "filaw": 1914,
      "jamakulu": 1915,
      "mpi": 1916,
      "kare": 1917,
      "bee": 1918,
      "faraɲɔgɔnkan": 1919,
      "ms": 1920,
      "anu": 1921,
      "ie": 1922,
      "boo": 1923,
      "bataki": 1924,
      "donni": 1925,
      "sumani": 1926,
      "kiw": 1927,
      "yili": 1928,
      "yɛlɛmaw": 1929,
      "sɔsɔ": 1930,
      "win": 1931,
      "sigiden": 1932,
      "ingi": 1933,
      "kopi": 1934,
      "ning": 1935,
      "sɛtan": 1936,
      "ɲumanba": 1937,
      "bro": 1938,
      "maki": 1939,
      "nouve": 1940,
      "kong": 1941,
      "filili": 1942,
      "faransɛ": 1943,
      "hong": 1944,
      "tabiya": 1945,
      "wasabulon": 1946,
      "nun": 1947,
      "ɲinni": 1948,
      "nɔfɛ": 1949,
      "nouvelle": 1950,
      "aye": 1951,
      "dilana": 1952,
      "nɔkɔ": 1953,
      "tayiwani": 1954,
      "nɔngɔnɲɛ": 1955,
      "deni": 1956,
      "metro": 1957,
      "dino": 1958,
      "olɛnpik": 1959,
      "0w": 1960,
      "kia": 1961,
      "ɲɛkɛn": 1962,
      "fɛnɲɛnɛ": 1963,
      "marabulon": 1964,
      "chili": 1965,
      "kɛnɛyaso": 1966,
      "pankuruso": 1967,
      "dolokulu": 1968,
      "sitan": 1969,
      "rock": 1970,
      "lajɛliw": 1971,
      "bretagne": 1972,
      "utikalo": 1973,
      "ith": 1974,
      "oya": 1975,
      "lameriki": 1976,
      "kuhĩ": 1977,
      "kurakura": 1978,
      "rũrũ": 1979,
      "dɔkɔtɔrɔso": 1980,
      "mwĩcirĩ": 1981,
      "mwĩcirĩrie": 1982,
      "kɛcogoya": 1983,
      "warĩ": 1984,
      "chu": 1985,
      "hũthĩ": 1986,
      "fɛrɛne": 1987,
      "desɛn": 1988,
      "mirili": 1989,
      "damaniw": 1990,
      "jisanfɛ": 1991,
      "dɔnlen": 1992,
      "yangan": 1993,
      "tulɔnkɛ": 1994,
      "makĩ": 1995,
      "ɲagamu": 1996,
      "dĩ": 1997,
      "ger": 1998,
      "nginya": 1999,
      "ĩyo": 2000,
      "jalan": 2001,
      "tiɲɛla": 2002,
      "ĩka": 2003,
      "kalanden": 2004,
      "hinda": 2005,
      "yarĩ": 2006,
      "kumakan": 2007,
      "nyi": 2008,
      "yɛrɛw": 2009,
      "bɛna": 2010,
      "dege": 2011,
      "pere": 2012,
      "dia": 2013,
      "mɛnɛ": 2014,
      "dafalen": 2015,
      "ninw": 2016,
      "bar": 2017,
      "sura": 2018,
      "nenw": 2019,
      "kabako": 2020,
      "kuncɛ": 2021,
      "kó": 2022,
      "sami": 2023,
      "sɛgɛn": 2024,
      "baliw": 2025,
      "tigɛla": 2026,
      "balima": 2027,
      "kabi": 2028,
      "yere": 2029,
      "marifa": 2030,
      "jumɛn": 2031,
      "fɔn": 2032,
      "sew": 2033,
      "kuran": 2034,
      "una": 2035,
      "fɛɛrɛw": 2036,
      "kumana": 2037,
      "saa": 2038,
      "kɔgɔji": 2039,
      "com": 2040,
      "she": 2041,
      "tiga": 2042,
      "suw": 2043,
      "tiɲɛn": 2044,
      "bri": 2045,
      "dunu": 2046,
      "rini": 2047,
      "for": 2048,
      "lamɛ": 2049,
      "kɔsa": 2050,
      "araba": 2051,
      "jɔrɔ": 2052,
      "ɔgu": 2053,
      "kɔnɔw": 2054,
      "kalaya": 2055,
      "kuntilenna": 2056,
      "saara": 2057,
      "isi": 2058,
      "lasɔ": 2059,
      "kɛ́": 2060,
      "nationa": 2061,
      "urugu": 2062,
      "azi": 2063,
      "tt": 2064,
      "national": 2065,
      "yurugu": 2066,
      "siyɔrɔ": 2067,
      "weleli": 2068,
      "lamɔ": 2069,
      "basi": 2070,
      "fɛsɛ": 2071,
      "tɛrɛn": 2072,
      "sto": 2073,
      "turisi": 2074,
      "lagosi": 2075,
      "rome": 2076,
      "zulu": 2077,
      "urunan": 2078,
      "los": 2079,
      "kunun": 2080,
      "mine": 2081,
      "cɛni": 2082,
      "mer": 2083,
      "karamɔgɔ": 2084,
      "banabaatɔ": 2085,
      "ò": 2086,
      "ct": 2087,
      "yal": 2088,
      "duurunan": 2089,
      "ŋana": 2090,
      "dal": 2091,
      "faama": 2092,
      "cɛncɛn": 2093,
      "00": 2094,
      "fɔr": 2095,
      "yɔ": 2096,
      "lic": 2097,
      "siɲɛn": 2098,
      "kanɲɛ": 2099,
      "kɛlɛcɛw": 2100,
      "tarata": 2101,
      "uri": 2102,
      "lika": 2103,
      "ɔgɔni": 2104,
      "singa": 2105,
      "od": 2106,
      "gazi": 2107,
      "dis": 2108,
      "siranya": 2109,
      "town": 2110,
      "ed": 2111,
      "und": 2112,
      "taɲi": 2113,
      "teur": 2114,
      "yɛlɛman": 2115,
      "gansanw": 2116,
      "sanni": 2117,
      "ɲangi": 2118,
      "ntolan": 2119,
      "wasu": 2120,
      "kafe": 2121,
      "kɛyɔrɔw": 2122,
      "gosili": 2123,
      "park": 2124,
      "ɲɛnɛmaya": 2125,
      "warimaraso": 2126,
      "kɔlɔlɔw": 2127,
      "union": 2128,
      "lahala": 2129,
      "kalanw": 2130,
      "ɔrɔni": 2131,
      "rus": 2132,
      "kland": 2133,
      "fɛgɛ": 2134,
      "bangeli": 2135,
      "bolikɛla": 2136,
      "peter": 2137,
      "equa": 2138,
      "ence": 2139,
      "sateli": 2140,
      "sovi": 2141,
      "red": 2142,
      "kɛlɛba": 2143,
      "balola": 2144,
      "bɔlɔlɔkan": 2145,
      "mɔbiliw": 2146,
      "oly": 2147,
      "tiriki": 2148,
      "garo": 2149,
      "famaw": 2150,
      "ern": 2151,
      "kunkokɔnɔna": 2152,
      "haiti": 2153,
      "kɔnɔnaw": 2154,
      "cera": 2155,
      "kɛrɛnkɛrɛnlen": 2156,
      "ɲɔngɔn": 2157,
      "sɔnnikɛyɔrɔ": 2158,
      "puro": 2159,
      "whi": 2160,
      "faba": 2161,
      "ɲɛɲinina": 2162,
      "dɔngili": 2163,
      "farakan": 2164,
      "pore": 2165,
      "zelande": 2166,
      "filip": 2167,
      "kinya": 2168,
      "krit": 2169,
      "northern": 2170,
      "chilie": 2171,
      "wɔni": 2172,
      "ɔs": 2173,
      "ugani": 2174,
      "charles": 2175,
      "sɛriwisi": 2176,
      "rwa": 2177,
      "kalani": 2178,
      "marĩ": 2179,
      "jar": 2180,
      "kɛmɛsi": 2181,
      "ɲininli": 2182,
      "gulɔ": 2183,
      "dũire": 2184,
      "jɛnkɛn": 2185,
      "jukɔrɔma": 2186,
      "zuyekalo": 2187,
      "durɔn": 2188,
      "equateur": 2189,
      "ato": 2190,
      "sekana": 2191,
      "kũmen": 2192,
      "nyingĩ": 2193,
      "pasipɔri": 2194,
      "fɛnɲɛnɛmani": 2195,
      "itũra": 2196,
      "nĩĩ": 2197,
      "kũrũ": 2198,
      "mĩaka": 2199,
      "gũrũ": 2200,
      "gũthi": 2201,
      "waaticamala": 2202,
      "mbĩ": 2203,
      "otɛli": 2204,
      "koragwo": 2205,
      "njĩ": 2206,
      "othe": 2207,
      "tsun": 2208,
      "hakilisigi": 2209,
      "baarakɛyɔrɔw": 2210,
      "air": 2211,
      "njĩra": 2212,
      "tsunami": 2213,
      "irio": 2214,
      "russie": 2215,
      "pital": 2216,
      "dilane": 2217,
      "hinya": 2218,
      "pagos": 2219,
      "ĩkaine": 2220,
      "bra": 2221,
      "konze": 2222,
      "gũti": 2223,
      "sumaya": 2224,
      "kiretiyɛn": 2225,
      "tarũ": 2226,
      "malo": 2227,
      "misi": 2228,
      "sabati": 2229,
      "yɛli": 2230,
      "ɲumanw": 2231,
      "guru": 2232,
      "sanji": 2233,
      "kule": 2234,
      "koni": 2235,
      "bisi": 2236,
      "nata": 2237,
      "danna": 2238,
      "jago": 2239,
      "ɲɛda": 2240,
      "hakilila": 2241,
      "mabɔ": 2242,
      "jamanadenw": 2243,
      "kunkan": 2244,
      "denya": 2245,
      "ŋɛ": 2246,
      "dabali": 2247,
      "kar": 2248,
      "sigilan": 2249,
      "kera": 2250,
      "ugo": 2251,
      "kɔlɔsili": 2252,
      "ɲɛ́": 2253,
      "bou": 2254,
      "gwe": 2255,
      "ná": 2256,
      "filɛli": 2257,
      "arabu": 2258,
      "tɔgɔla": 2259,
      "chi": 2260,
      "ayi": 2261,
      "kunnafonidi": 2262,
      "naan": 2263,
      "ita": 2264,
      "twa": 2265,
      "atlan": 2266,
      "sida": 2267,
      "tɛnɛ": 2268,
      "oni": 2269,
      "jiw": 2270,
      "ciya": 2271,
      "karaba": 2272,
      "wati": 2273,
      "diw": 2274,
      "sago": 2275,
      "jala": 2276,
      "tulo": 2277,
      "bilasira": 2278,
      "furancɛ": 2279,
      "taali": 2280,
      "walew": 2281,
      "ɲɛma": 2282,
      "tɛ́": 2283,
      "tunu": 2284,
      "nina": 2285,
      "mis": 2286,
      "binkanni": 2287,
      "gola": 2288,
      "pub": 2289,
      "rina": 2290,
      "labanna": 2291,
      "jiriw": 2292,
      "duw": 2293,
      "sukaro": 2294,
      "oro": 2295,
      "kasɔrɔ": 2296,
      "manan": 2297,
      "nini": 2298,
      "kɛlɛw": 2299,
      "belebeleba": 2300,
      "daraka": 2301,
      "ward": 2302,
      "ɲɔgɔnye": 2303,
      "val": 2304,
      "kɛw": 2305,
      "duman": 2306,
      "cto": 2307,
      "maro": 2308,
      "burg": 2309,
      "mɔn": 2310,
      "marabolo": 2311,
      "gene": 2312,
      "medite": 2313,
      "mediteran": 2314,
      "ns": 2315,
      "tira": 2316,
      "seginna": 2317,
      "ɔnin": 2318,
      "ɔrɔnan": 2319,
      "port": 2320,
      "siginiden": 2321,
      "sabanan": 2322,
      "gar": 2323,
      "minɛli": 2324,
      "kasi": 2325,
      "bert": 2326,
      "jida": 2327,
      "sate": 2328,
      "rom": 2329,
      "kɛnɛma": 2330,
      "suguyaw": 2331,
      "my": 2332,
      "os": 2333,
      "lou": 2334,
      "repub": 2335,
      "ɛsipaɲi": 2336,
      "rican": 2337,
      "cal": 2338,
      "kele": 2339,
      "duguden": 2340,
      "tus": 2341,
      "llo": 2342,
      "yele": 2343,
      "nafɔ": 2344,
      "sigiyɔrɔma": 2345,
      "ladilikan": 2346,
      "bugu": 2347,
      "dro": 2348,
      "mal": 2349,
      "urs": 2350,
      "sigiyɔrɔw": 2351,
      "joona": 2352,
      "jɔnjɔnw": 2353,
      "app": 2354,
      "tine": 2355,
      "kɛɛ": 2356,
      "goma": 2357,
      "sus": 2358,
      "dugukoloyɛrɛyɛrɛ": 2359,
      "nɛgɛw": 2360,
      "miliyon": 2361,
      "nzi": 2362,
      "iniw": 2363,
      "lus": 2364,
      "wuye": 2365,
      "star": 2366,
      "grand": 2367,
      "sik": 2368,
      "kutɔ": 2369,
      "nino": 2370,
      "urg": 2371,
      "sɔni": 2372,
      "woyasikɛla": 2373,
      "zanwuye": 2374,
      "sugandira": 2375,
      "era": 2376,
      "ks": 2377,
      "ɔkɔ": 2378,
      "ɲama": 2379,
      "duna": 2380,
      "jigiso": 2381,
      "paris": 2382,
      "19": 2383,
      "anta": 2384,
      "bakan": 2385,
      "vati": 2386,
      "ɲininikɛlaw": 2387,
      "ɔkutɔ": 2388,
      "back": 2389,
      "low": 2390,
      "fir": 2391,
      "kile": 2392,
      "baanakisɛ": 2393,
      "lakanatigilamɔgɔw": 2394,
      "aland": 2395,
      "rug": 2396,
      "bay": 2397,
      "soboli": 2398,
      "cɛra": 2399,
      "kalankɛ": 2400,
      "zealand": 2401,
      "gɛrɛgɛrɛ": 2402,
      "tire": 2403,
      "kogo": 2404,
      "lancɛ": 2405,
      "bour": 2406,
      "boɲa": 2407,
      "than": 2408,
      "dana": 2409,
      "yɛlɛmayɛlɛma": 2410,
      "jɔla": 2411,
      "kumalase": 2412,
      "masamuso": 2413,
      "ɲɛmɔgɔba": 2414,
      "running": 2415,
      "bileman": 2416,
      "sai": 2417,
      "sobolila": 2418,
      "gundo": 2419,
      "famuyali": 2420,
      "funufunu": 2421,
      "lasiyɔn": 2422,
      "talɔn": 2423,
      "hall": 2424,
      "dus": 2425,
      "denmisɛn": 2426,
      "jamanabolo": 2427,
      "kulula": 2428,
      "ned": 2429,
      "pase": 2430,
      "geria": 2431,
      "jateden": 2432,
      "erezo": 2433,
      "kunafonidi": 2434,
      "gilizi": 2435,
      "disney": 2436,
      "sateliti": 2437,
      "olympi": 2438,
      "satelli": 2439,
      "mau": 2440,
      "sikɔ": 2441,
      "siriki": 2442,
      "bans": 2443,
      "bush": 2444,
      "taaka": 2445,
      "nɛgɛkuruni": 2446,
      "lajɛlikɛlaw": 2447,
      "falenfɛnw": 2448,
      "ɛtiw": 2449,
      "photon": 2450,
      "apilika": 2451,
      "satellite": 2452,
      "apilikasiyɔn": 2453,
      "ɔnti": 2454,
      "balila": 2455,
      "casa": 2456,
      "gio": 2457,
      "marabaaw": 2458,
      "quie": 2459,
      "turquie": 2460,
      "afugani": 2461,
      "kaburuw": 2462,
      "iraki": 2463,
      "furɔnti": 2464,
      "bakuruba": 2465,
      "sanskrit": 2466,
      "afuganisitan": 2467,
      ",\"": 2468,
      "jr": 2469,
      "sur": 2470,
      "ŋanu": 2471,
      "fɛti": 2472,
      "dive": 2473,
      "pankun": 2474,
      "harbour": 2475,
      "sikɔpu": 2476,
      "op": 2477,
      "rikɛn": 2478,
      "dibi": 2479,
      "hamwe": 2480,
      "waatini": 2481,
      "then": 2482,
      "suwɛ": 2483,
      "rĩrĩa": 2484,
      "tuthũ": 2485,
      "kĩbin": 2486,
      "mũri": 2487,
      "honia": 2488,
      "tamali": 2489,
      "nyũ": 2490,
      "ɲɔnti": 2491,
      "kĩrĩma": 2492,
      "australie": 2493,
      "ayero": 2494,
      "ŋanuya": 2495,
      "pankunru": 2496,
      "suwɛdi": 2497,
      "kĩbindi": 2498,
      "irwo": 2499,
      "mw": 2500,
      "maho": 2501,
      "teyi": 2502,
      "hau": 2503,
      "dɔnli": 2504,
      "nɛfɛ": 2505,
      "rang": 2506,
      "sanfɛlala": 2507,
      "nĩũ": 2508,
      "sɛbɛnli": 2509,
      "mũnene": 2510,
      "fiyɛnkolɔn": 2511,
      "thayũ": 2512,
      "batɔnw": 2513,
      "dingɛ": 2514,
      "mbica": 2515,
      "ihen": 2516,
      "mwen": 2517,
      "koɲɛɲini": 2518,
      "korwo": 2519,
      "tɛyi": 2520,
      "waariw": 2521,
      "wega": 2522,
      "mela": 2523,
      "alikɔli": 2524,
      "kũi": 2525,
      "zasiyɔn": 2526,
      "kodɔnlenw": 2527,
      "tũmi": 2528,
      "waatidɔwla": 2529,
      "gɔfɛrɛne": 2530,
      "thutha": 2531,
      "pirewu": 2532,
      "boome": 2533,
      "ihenya": 2534,
      "mwena": 2535,
      "naini": 2536,
      "ɲɔgɔnw": 2537,
      "kĩro": 2538,
      "sinsinleno": 2539,
      "maarayɔrɔw": 2540,
      "thomo": 2541,
      "gɛlɛna": 2542,
      "berlin": 2543,
      "waatibɛɛla": 2544,
      "kwĩna": 2545,
      "ikara": 2546,
      "ngiri": 2547,
      "kɔrɔta": 2548,
      "kodɔnleno": 2549,
      "thamaki": 2550,
      "hanĩ": 2551,
      "islands": 2552,
      "thondeka": 2553,
      "boomerang": 2554,
      "kanjar": 2555,
      "dɔra": 2556,
      "ɲɛzi": 2557,
      "mĩrongo": 2558,
      "zuyew": 2559,
      "nzirin": 2560,
      "capital": 2561,
      "harĩ": 2562,
      "galapagos": 2563,
      "talila": 2564,
      "dɔna": 2565,
      "sunɔgɔ": 2566,
      "hara": 2567,
      "yoga": 2568,
      "ele": 2569,
      "yiriwa": 2570,
      "́ra": 2571,
      ".»": 2572,
      "katugu": 2573,
      "faaba": 2574,
      "jin": 2575,
      "bà": 2576,
      "baba": 2577,
      "zɛn": 2578,
      "ɔnɔ": 2579,
      "maria": 2580,
      "kɔlɔsi": 2581,
      "talen": 2582,
      "tere": 2583,
      "danga": 2584,
      "firi": 2585,
      "sere": 2586,
      "des": 2587,
      "kafo": 2588,
      "dio": 2589,
      "wɔɔrɔ": 2590,
      "nɔnɔ": 2591,
      "furaw": 2592,
      "́lo": 2593,
      "banna": 2594,
      "matigi": 2595,
      "uw": 2596,
      "masiri": 2597,
      "fà": 2598,
      "tigɛli": 2599,
      "silamɛ": 2600,
      "ou": 2601,
      "ù": 2602,
      "tá": 2603,
      "sugun": 2604,
      "yoro": 2605,
      "inan": 2606,
      "kasa": 2607,
      "degun": 2608,
      "tre": 2609,
      "kosɔn": 2610,
      "eli": 2611,
      "dí": 2612,
      "baarakɛlaw": 2613,
      "dɔɔnin": 2614,
      "kunw": 2615,
      "kɔrɔla": 2616,
      "sele": 2617,
      "taala": 2618,
      "aman": 2619,
      "dulon": 2620,
      "int": 2621,
      "niko": 2622,
      "ex": 2623,
      "mes": 2624,
      "ní": 2625,
      "sɛmɛn": 2626,
      "pewu": 2627,
      "maka": 2628,
      "tigitigi": 2629,
      "warani": 2630,
      "sababou": 2631,
      "surunya": 2632,
      "pre": 2633,
      "kùn": 2634,
      "sɛbɛnna": 2635,
      "matu": 2636,
      "sigin": 2637,
      "tigɛra": 2638,
      "zari": 2639,
      "iko": 2640,
      "timinan": 2641,
      "dakun": 2642,
      "dannaya": 2643,
      "oli": 2644,
      "lara": 2645,
      "juguba": 2646,
      "naa": 2647,
      "kunda": 2648,
      "jɛɲɔgɔnya": 2649,
      "koli": 2650,
      "suman": 2651,
      "labɛnna": 2652,
      "yɛlɛmana": 2653,
      "baran": 2654,
      "ure": 2655,
      "garamu": 2656,
      "naaninan": 2657,
      "suko": 2658,
      "dow": 2659,
      "farafinna": 2660,
      "bor": 2661,
      "fisa": 2662,
      "dusukun": 2663,
      "bɛnni": 2664,
      "nà": 2665,
      "teriw": 2666,
      "pon": 2667,
      "tabu": 2668,
      "tene": 2669,
      "kɔnna": 2670,
      "gri": 2671,
      "ul": 2672,
      "tana": 2673,
      "labanw": 2674,
      "ak": 2675,
      "ɛw": 2676,
      "taka": 2677,
      "versi": 2678,
      "sà": 2679,
      "mura": 2680,
      "doni": 2681,
      "yɛrɛla": 2682,
      "ac": 2683,
      "latin": 2684,
      "bolola": 2685,
      "jura": 2686,
      "lɔni": 2687,
      "tì": 2688,
      "sì": 2689,
      "inafo": 2690,
      "cakɛdaw": 2691,
      "gro": 2692,
      "mata": 2693,
      "kumaɲɔgɔnya": 2694,
      "jow": 2695,
      "ssa": 2696,
      "ɲɔg": 2697,
      "dafa": 2698,
      "falo": 2699,
      "porogaramu": 2700,
      "bulɔgu": 2701,
      "mediterane": 2702,
      "eliza": 2703,
      "km": 2704,
      "sosow": 2705,
      "lɛw": 2706,
      "bɔɲɔgɔn": 2707,
      "banakisɛw": 2708,
      "ut": 2709,
      "ɲani": 2710,
      "rai": 2711,
      "yalen": 2712,
      "cogoyaw": 2713,
      "awɔ": 2714,
      "sburg": 2715,
      "lata": 2716,
      "kɛso": 2717,
      "ania": 2718,
      "bɛli": 2719,
      "ɲɛbila": 2720,
      "halisa": 2721,
      "juruw": 2722,
      "silamɛya": 2723,
      "mil": 2724,
      "sigiɲɔgɔn": 2725,
      "ɛrɛw": 2726,
      "id": 2727,
      "mbe": 2728,
      "xe": 2729,
      "sibila": 2730,
      "coo": 2731,
      "tuku": 2732,
      "nisɔngɔ": 2733,
      "jer": 2734,
      "ky": 2735,
      "kakɛ": 2736,
      "latilen": 2737,
      "ham": 2738,
      "ong": 2739,
      "marala": 2740,
      "alon": 2741,
      "simi": 2742,
      "lege": 2743,
      "ral": 2744,
      "rida": 2745,
      "seere": 2746,
      "santa": 2747,
      "fosi": 2748,
      "danaya": 2749,
      "maralen": 2750,
      "muna": 2751,
      "minfɛn": 2752,
      "ling": 2753,
      "nɔnabila": 2754,
      "koko": 2755,
      "fɔri": 2756,
      "wal": 2757,
      "bɛri": 2758,
      "dir": 2759,
      "tia": 2760,
      "kokɛ": 2761,
      "samani": 2762,
      "sanfiɲɛ": 2763,
      "dumanw": 2764,
      "nɛkɛ": 2765,
      "west": 2766,
      "tarali": 2767,
      "line": 2768,
      "gongo": 2769,
      "minisiriso": 2770,
      "dɔnkilidala": 2771,
      "gy": 2772,
      "ikomi": 2773,
      "ń": 2774,
      "ziki": 2775,
      "wita": 2776,
      "his": 2777,
      "jiginyɔrɔ": 2778,
      "datugulen": 2779,
      "cro": 2780,
      "ir": 2781,
      "david": 2782,
      "dian": 2783,
      "vir": 2784,
      "vide": 2785,
      "alonso": 2786,
      "15": 2787,
      "nja": 2788,
      "ps": 2789,
      "sanw": 2790,
      "geor": 2791,
      "centra": 2792,
      "sɛtanburukalo": 2793,
      "tex": 2794,
      "butiki": 2795,
      "sigira": 2796,
      "nowan": 2797,
      "ɲaka": 2798,
      "gɛrɛki": 2799,
      "taamasiɲɛ": 2800,
      "biritaɲi": 2801,
      "18": 2802,
      "clas": 2803,
      "makɔnɔn": 2804,
      "kɔnɔtɔn": 2805,
      "sigibaw": 2806,
      "part": 2807,
      "stre": 2808,
      "konko": 2809,
      "waleyaw": 2810,
      "sekoni": 2811,
      "center": 2812,
      "dɔnnikɛlaw": 2813,
      "monte": 2814,
      "sukuya": 2815,
      "dunanjigiso": 2816,
      "louis": 2817,
      "apple": 2818,
      "class": 2819,
      "izi": 2820,
      "zene": 2821,
      "maci": 2822,
      "tibe": 2823,
      "sankɛmɛ": 2824,
      "tɛriw": 2825,
      "yɛni": 2826,
      "jidala": 2827,
      "fogo": 2828,
      "celu": 2829,
      "pakistan": 2830,
      "flo": 2831,
      "ɲina": 2832,
      "hawai": 2833,
      "ross": 2834,
      "sirakan": 2835,
      "dantan": 2836,
      "bolilaw": 2837,
      "pic": 2838,
      "chy": 2839,
      "kisɛci": 2840,
      "jaabiw": 2841,
      "datugura": 2842,
      "turo": 2843,
      "zɛni": 2844,
      "venus": 2845,
      "canada": 2846,
      "ntɛnɛ": 2847,
      "ɛr": 2848,
      "kafɔ": 2849,
      "mayili": 2850,
      "fic": 2851,
      "dii": 2852,
      "sɛti": 2853,
      "lɛrɛ": 2854,
      "mia": 2855,
      "lujura": 2856,
      "tours": 2857,
      "cep": 2858,
      "hokumu": 2859,
      "nɔni": 2860,
      "dɛmɛli": 2861,
      "ɲɛnɛma": 2862,
      "ring": 2863,
      "yeelendi": 2864,
      "yeelenbarani": 2865,
      "black": 2866,
      "texas": 2867,
      "cur": 2868,
      "egilizi": 2869,
      "hne": 2870,
      "ika": 2871,
      "yɔrɔni": 2872,
      "walɛri": 2873,
      "siriya": 2874,
      "caro": 2875,
      "gique": 2876,
      "luxe": 2877,
      "super": 2878,
      "nei": 2879,
      "pound": 2880,
      "kɔfɛla": 2881,
      "kalifɔr": 2882,
      "mbourg": 2883,
      "scope": 2884,
      "jijukɔrɔkurun": 2885,
      "dabaliban": 2886,
      "george": 2887,
      "nowanburukalo": 2888,
      "ɛrɔpu": 2889,
      "oce": 2890,
      "sɔgɔni": 2891,
      "latɛn": 2892,
      "manfɛn": 2893,
      "mankanw": 2894,
      "zimu": 2895,
      "pole": 2896,
      "jateminɛn": 2897,
      "jateminɛna": 2898,
      "fulancɛ": 2899,
      "fiyɛnkolon": 2900,
      "wolowi": 2901,
      "siyako": 2902,
      "fɛrɛw": 2903,
      "luna": 2904,
      "kɔrɔbalen": 2905,
      "franci": 2906,
      "ɲangiliw": 2907,
      "sirikilasiyɔn": 2908,
      "elizabe": 2909,
      "central": 2910,
      "luxembourg": 2911,
      "ocean": 2912,
      "osa": 2913,
      "ɔsiti": 2914,
      "bayiri": 2915,
      "bek": 2916,
      "kimo": 2917,
      "farani": 2918,
      "catalan": 2919,
      "telima": 2920,
      "reid": 2921,
      "romani": 2922,
      "civi": 2923,
      "baarakɛli": 2924,
      "moun": 2925,
      "morio": 2926,
      "bɔnɲa": 2927,
      "kɛrɛma": 2928,
      "horo": 2929,
      "kisɛniw": 2930,
      "tonga": 2931,
      "hangi": 2932,
      "finiti": 2933,
      "wanya": 2934,
      "turki": 2935,
      "biritani": 2936,
      "kasodenw": 2937,
      "polosiw": 2938,
      "jaraminɛ": 2939,
      "damatɛmɛlen": 2940,
      "masurunyala": 2941,
      "digɛnw": 2942,
      "belgique": 2943,
      "sɔgɔnijɛ": 2944,
      "ɔsitirali": 2945,
      "ppan": 2946,
      "mathi": 2947,
      "kɛbaw": 2948,
      "tiye": 2949,
      "koɲuma": 2950,
      "rimu": 2951,
      "kɔfara": 2952,
      "jikurun": 2953,
      "tunbe": 2954,
      "tanda": 2955,
      "tankha": 2956,
      "ciden": 2957,
      "bangu": 2958,
      "ness": 2959,
      "ɲinnin": 2960,
      "yansi": 2961,
      "sɛbɛntiya": 2962,
      "bɔndaw": 2963,
      "dɔnidɔni": 2964,
      "fangabolo": 2965,
      "jateminɛla": 2966,
      "kunafonicari": 2967,
      "kɔkɔjida": 2968,
      "sundar": 2969,
      "tasumaji": 2970,
      "fotota": 2971,
      "burgh": 2972,
      "piramidiba": 2973,
      "kɛrɛnkɛrɛnnenyala": 2974,
      "sukunɛ": 2975,
      "singapore": 2976,
      "white": 2977,
      "ɔstarali": 2978,
      "maldive": 2979,
      "tankhamun": 2980,
      "sundarbans": 2981,
      "_kare": 2982,
      "adũ": 2983,
      "athi": 2984,
      "amwe": 2985,
      "acio": 2986,
      "atilan": 2987,
      "ĩa": 2988,
      "ĩria": 2989,
      "ũmen": 2990,
      "ũyũ": 2991,
      "ũdũire": 2992,
      "kambĩ": 2993,
      "matha": 2994,
      "nikili": 2995,
      "kɛniya": 2996,
      "koɲɛɲinina": 2997,
      "fɛri": 2998,
      "jia": 2999,
      "dewo": 3000,
      "waatibɛla": 3001,
      "ciana": 3002,
      "suyɛn": 3003,
      "yitĩ": 3004,
      "sirafɛ": 3005,
      "kuluyɛlɛ": 3006,
      "tutankhamun": 3007,
      "nĩo": 3008,
      "nĩgĩ": 3009,
      "widewo": 3010,
      "mĩa": 3011,
      "gũkinya": 3012,
      "misɛniw": 3013,
      "thĩini": 3014,
      "woyazikɛlaw": 3015,
      "bɔlɔlɔsira": 3016,
      "thoma": 3017,
      "hindu": 3018,
      "''.": 3019,
      "kalatala": 3020,
      "fiɲɛbila": 3021,
      "hũri": 3022,
      "thuthu": 3023,
      "nɔrɔma": 3024,
      "parikiw": 3025,
      "jijukɔrɔkurunw": 3026,
      "sirabakasara": 3027,
      "otɛliw": 3028,
      "rũrũn": 3029,
      "marĩhi": 3030,
      "ayeropɔri": 3031,
      "tandatũ": 3032,
      "koɲɛɲininaw": 3033,
      "hs": 3034,
      "ĩmwe": 3035,
      "ĩngĩ": 3036,
      "marũ": 3037,
      "gore": 3038,
      "boɲan": 3039,
      "yɔrɔlajɛli": 3040,
      "coka": 3041,
      "jɛkɛ": 3042,
      "cɛɲuman": 3043,
      "yihĩ": 3044,
      "nĩmo": 3045,
      "nĩguo": 3046,
      "janɲa": 3047,
      "kũu": 3048,
      "kũri": 3049,
      "kũrĩa": 3050,
      "kũhũthĩ": 3051,
      "kũnyi": 3052,
      "sariyala": 3053,
      "ikũ": 3054,
      "igĩrĩ": 3055,
      "igũrũ": 3056,
      "mbũ": 3057,
      "ĩna": 3058,
      "ũria": 3059,
      "marĩa": 3060,
      "bɔɲa": 3061,
      "dɔnniw": 3062,
      "pate": 3063,
      "kĩte": 3064,
      "sɔngɔ": 3065,
      "ɲinineno": 3066,
      "thĩna": 3067,
      "ringana": 3068,
      "tamasiyɛnw": 3069,
      "pɛnw": 3070,
      "sɔkɔma": 3071,
      "ingithia": 3072,
      "filipini": 3073,
      "ikaraga": 3074,
      "ikũmi": 3075,
      "ũmwe": 3076,
      "laa": 3077,
      "girɛ": 3078,
      "tɛmɛniw": 3079,
      "tuguli": 3080,
      "mũndũ": 3081,
      "rũren": 3082,
      "kiny": 3083,
      "tinan": 3084,
      "ngina": 3085,
      "guay": 3086,
      "baltic": 3087,
      "rũrenda": 3088,
      "mwanya": 3089,
      "wayo": 3090,
      "kĩra": 3091,
      "mĩi": 3092,
      "tilaneno": 3093,
      "lls": 3094,
      "piramidiw": 3095,
      "girafiti": 3096,
      "ciyɛnni": 3097,
      "makĩria": 3098,
      "hɛ": 3099,
      "ũguo": 3100,
      "jí": 3101,
      "ɔrigani": 3102,
      "taakasegi": 3103,
      "ɔriganizasiyɔn": 3104,
      "krista": 3105,
      "jeni": 3106,
      "kere": 3107,
      "gali": 3108,
      "bɔgɔ": 3109,
      "dɔgɔn": 3110,
      "yana": 3111,
      "fɔla": 3112,
      "ee": 3113,
      "tobi": 3114,
      "nga": 3115,
      "bama": 3116,
      "jà": 3117,
      "yaw": 3118,
      "masala": 3119,
      "kulo": 3120,
      "bì": 3121,
      "dòn": 3122,
      "dɛmɛn": 3123,
      "nyo": 3124,
      "fitin": 3125,
      "kini": 3126,
      "duguba": 3127,
      "jinɛ": 3128,
      "madi": 3129,
      "kutu": 3130,
      "jamu": 3131,
      "masaya": 3132,
      "fama": 3133,
      "denbaya": 3134,
      "damadɔ": 3135,
      "tagara": 3136,
      "segu": 3137,
      "dali": 3138,
      "fla": 3139,
      "file": 3140,
      "cɛma": 3141,
      "sɔrɔda": 3142,
      "wá": 3143,
      "hadama": 3144,
      "jogin": 3145,
      "jamanaden": 3146,
      "goro": 3147,
      "amerika": 3148,
      "hana": 3149,
      "minin": 3150,
      "teriya": 3151,
      "juguman": 3152,
      "án": 3153,
      "lafiyɛn": 3154,
      "maraw": 3155,
      "̀gɔ": 3156,
      "lema": 3157,
      "tor": 3158,
      "kumaw": 3159,
      "kalaw": 3160,
      "tɛmɛsira": 3161,
      "jogo": 3162,
      "tɛmɛna": 3163,
      "barika": 3164,
      "rica": 3165,
      "fiyɛ": 3166,
      "denkɛ": 3167,
      "hɔn": 3168,
      "yin": 3169,
      "npa": 3170,
      "mala": 3171,
      "daka": 3172,
      "tugura": 3173,
      "sɔɔni": 3174,
      "foli": 3175,
      "tulu": 3176,
      "wolonwula": 3177,
      "sahe": 3178,
      "koba": 3179,
      "saw": 3180,
      "donso": 3181,
      "taalen": 3182,
      "sokɔnɔ": 3183,
      "danma": 3184,
      "baliku": 3185,
      "uk": 3186,
      "cou": 3187,
      "bɛnkansɛbɛn": 3188,
      "lakan": 3189,
      "saint": 3190,
      "jɛman": 3191,
      "afrika": 3192,
      "sé": 3193,
      "bola": 3194,
      "sɔgɔmada": 3195,
      "ɛgɛ": 3196,
      "faso": 3197,
      "mɔgɔfaga": 3198,
      "danbɔ": 3199,
      "kira": 3200,
      "bangera": 3201,
      "bɔrɔ": 3202,
      "dɔrɔ": 3203,
      "bolonɔ": 3204,
      "poyi": 3205,
      "ndo": 3206,
      "».": 3207,
      "bil": 3208,
      "tɛli": 3209,
      "ono": 3210,
      "dunanw": 3211,
      "dogolen": 3212,
      "um": 3213,
      "sɛmɛntiya": 3214,
      "fagara": 3215,
      "bilala": 3216,
      "fuw": 3217,
      "jila": 3218,
      "timinandiya": 3219,
      "sha": 3220,
      "mille": 3221,
      "lakali": 3222,
      "bɛka": 3223,
      "fali": 3224,
      "fɔ́": 3225,
      "kɔw": 3226,
      "kete": 3227,
      "hakɛto": 3228,
      "gɛrɛn": 3229,
      "alabato": 3230,
      "ux": 3231,
      "dankari": 3232,
      "dagalen": 3233,
      "naga": 3234,
      "tabaa": 3235,
      "kuntaala": 3236,
      "toni": 3237,
      "ayiwa": 3238,
      "az": 3239,
      "duru": 3240,
      "jufa": 3241,
      "jona": 3242,
      "sso": 3243,
      "saban": 3244,
      "dukɛnɛ": 3245,
      "sti": 3246,
      "mone": 3247,
      "bow": 3248,
      "dù": 3249,
      "jatelen": 3250,
      "tulonkɛ": 3251,
      "blan": 3252,
      "mɛni": 3253,
      "tunun": 3254,
      "tɔnw": 3255,
      "pɛrɛnna": 3256,
      "yu": 3257,
      "labana": 3258,
      "sankɔrɔta": 3259,
      "misira": 3260,
      "farali": 3261,
      "muruti": 3262,
      "»,": 3263,
      "saki": 3264,
      "lakodɔnnen": 3265,
      "fɛ̀": 3266,
      "mena": 3267,
      "tran": 3268,
      "maha": 3269,
      "duniya": 3270,
      "dancɛ": 3271,
      "dɛsɛra": 3272,
      "jana": 3273,
      "inya": 3274,
      "kɔ̀": 3275,
      "jikan": 3276,
      "lajɛya": 3277,
      "mona": 3278,
      "tilancɛ": 3279,
      "spe": 3280,
      "lajɔ": 3281,
      "saga": 3282,
      "setigi": 3283,
      "cɛci": 3284,
      "gue": 3285,
      "khan": 3286,
      "sikan": 3287,
      "sabana": 3288,
      "kulun": 3289,
      "mù": 3290,
      "binnen": 3291,
      "euro": 3292,
      "mbara": 3293,
      "indi": 3294,
      "lake": 3295,
      "ons": 3296,
      "res": 3297,
      "boloci": 3298,
      "koloni": 3299,
      "kɔrɔma": 3300,
      "feli": 3301,
      "polisi": 3302,
      "dunuya": 3303,
      "cla": 3304,
      "xi": 3305,
      "tey": 3306,
      "dancɛw": 3307,
      "kajɔ": 3308,
      "yari": 3309,
      "tɛni": 3310,
      "rea": 3311,
      "sumana": 3312,
      "zil": 3313,
      "laɲiniw": 3314,
      "pte": 3315,
      "lana": 3316,
      "fanfɛ": 3317,
      "banni": 3318,
      "farima": 3319,
      "yebali": 3320,
      "ted": 3321,
      "cy": 3322,
      "kɛɲɛn": 3323,
      "salo": 3324,
      "daman": 3325,
      "gata": 3326,
      "gor": 3327,
      "kɔnɔfɛnw": 3328,
      "sena": 3329,
      "senu": 3330,
      "tɛmɛlen": 3331,
      "panni": 3332,
      "guin": 3333,
      "lles": 3334,
      "massa": 3335,
      "aran": 3336,
      "dy": 3337,
      "pra": 3338,
      "spa": 3339,
      "try": 3340,
      "zini": 3341,
      "ange": 3342,
      "mariki": 3343,
      "sis": 3344,
      "jatigɛ": 3345,
      "jiginso": 3346,
      "united": 3347,
      "sugandili": 3348,
      "eri": 3349,
      "her": 3350,
      "labɔli": 3351,
      "mad": 3352,
      "yecogo": 3353,
      "kanbɔ": 3354,
      "goniya": 3355,
      "letɛri": 3356,
      "luw": 3357,
      "jujɔn": 3358,
      "miliyari": 3359,
      "universi": 3360,
      "yuruguyurugu": 3361,
      "ice": 3362,
      "jen": 3363,
      "tina": 3364,
      "vene": 3365,
      "kapi": 3366,
      "ris": 3367,
      "tɛgɛ": 3368,
      "ner": 3369,
      "kalanyɔrɔ": 3370,
      "adamadenya": 3371,
      "ght": 3372,
      "kiiritigɛ": 3373,
      "yɔmu": 3374,
      "ff": 3375,
      "mber": 3376,
      "fɛɛ": 3377,
      "sey": 3378,
      "fiki": 3379,
      "japon": 3380,
      "sojɔ": 3381,
      "dona": 3382,
      "pal": 3383,
      "alako": 3384,
      "peri": 3385,
      "bagabaga": 3386,
      "fɛsɛfɛsɛ": 3387,
      "university": 3388,
      "abada": 3389,
      "aol": 3390,
      "baka": 3391,
      "bei": 3392,
      "gati": 3393,
      "kelenkelenna": 3394,
      "poland": 3395,
      "walaka": 3396,
      "kalow": 3397,
      "york": 3398,
      "miniw": 3399,
      "ladilikanw": 3400,
      "pɔlɔ": 3401,
      "ɲininkaliw": 3402,
      "lakodon": 3403,
      "cs": 3404,
      "dɛn": 3405,
      "hy": 3406,
      "imi": 3407,
      "kyo": 3408,
      "uwa": 3409,
      "bakɔ": 3410,
      "wà": 3411,
      "wash": 3412,
      "tako": 3413,
      "rɛni": 3414,
      "bólo": 3415,
      "woni": 3416,
      "minɛw": 3417,
      "benw": 3418,
      "balili": 3419,
      "inɛgɛ": 3420,
      "faari": 3421,
      "kɛlɛkɛdenw": 3422,
      "pɔli": 3423,
      "marisikalo": 3424,
      "bɛliziki": 3425,
      "ams": 3426,
      "cus": 3427,
      "jing": 3428,
      "tta": 3429,
      "sil": 3430,
      "simin": 3431,
      "damina": 3432,
      "kuku": 3433,
      "lem": 3434,
      "tɛgɛrɛ": 3435,
      "kɛmɛsarada": 3436,
      "sup": 3437,
      "baarasira": 3438,
      "pilan": 3439,
      "tiriw": 3440,
      "siniwa": 3441,
      "states": 3442,
      "ast": 3443,
      "alina": 3444,
      "dri": 3445,
      "finɛ": 3446,
      "oke": 3447,
      "py": 3448,
      "plan": 3449,
      "indus": 3450,
      "kako": 3451,
      "yeta": 3452,
      "ray": 3453,
      "unes": 3454,
      "demi": 3455,
      "sinuwa": 3456,
      "kalamaw": 3457,
      "irisi": 3458,
      "arme": 3459,
      "ington": 3460,
      "filimuw": 3461,
      "lafiyalen": 3462,
      "ɔkutɔburukalo": 3463,
      "kanbɔji": 3464,
      "beijing": 3465,
      "aru": 3466,
      "dp": 3467,
      "nɔri": 3468,
      "phen": 3469,
      "sug": 3470,
      "lap": 3471,
      "lasigiden": 3472,
      "kofɛ": 3473,
      "jibɔn": 3474,
      "ther": 3475,
      "kɛrɛw": 3476,
      "kalaman": 3477,
      "yopi": 3478,
      "nɛgɛsira": 3479,
      "king": 3480,
      "lakodɔnna": 3481,
      "samaraw": 3482,
      "etiyopi": 3483,
      "kɔsala": 3484,
      "sekonidɔnko": 3485,
      "washington": 3486,
      "unesco": 3487,
      "ɲali": 3488,
      "inci": 3489,
      "kat": 3490,
      "lawaleya": 3491,
      "niman": 3492,
      "minn": 3493,
      "yat": 3494,
      "lotte": 3495,
      "manka": 3496,
      "seni": 3497,
      "jako": 3498,
      "gate": 3499,
      "tera": 3500,
      "mir": 3501,
      "dɔnta": 3502,
      "foka": 3503,
      "lɔmi": 3504,
      "negati": 3505,
      "kɛlɛkɛyɔrɔ": 3506,
      "kuruli": 3507,
      "tɔgɔtigi": 3508,
      "celo": 3509,
      "baloli": 3510,
      "buruw": 3511,
      "waribon": 3512,
      "bondo": 3513,
      "zantine": 3514,
      "silalɔmi": 3515,
      "kiiritigɛla": 3516,
      "johnson": 3517,
      "musaga": 3518,
      "jɛnsɛnni": 3519,
      "charlotte": 3520,
      "wotorow": 3521,
      "falkland": 3522,
      "republi": 3523,
      "ɲaniya": 3524,
      "fɔrima": 3525,
      "sankɛmɛsigi": 3526,
      "negatiwu": 3527,
      "cɔgɔ": 3528,
      "dɔr": 3529,
      "dini": 3530,
      "ev": 3531,
      "elle": 3532,
      "ppa": 3533,
      "sɔr": 3534,
      "tts": 3535,
      "kabu": 3536,
      "lajigi": 3537,
      "lagosili": 3538,
      "kɛsu": 3539,
      "kodo": 3540,
      "kojuguya": 3541,
      "tas": 3542,
      "kua": 3543,
      "james": 3544,
      "kir": 3545,
      "kuntala": 3546,
      "kɛmɛkɛmɛ": 3547,
      "suɲɛ": 3548,
      "sabaw": 3549,
      "mede": 3550,
      "gano": 3551,
      "dilanyɔrɔ": 3552,
      "stone": 3553,
      "kodɔnna": 3554,
      "ruk": 3555,
      "pera": 3556,
      "barakɛ": 3557,
      "vey": 3558,
      "feerefɛnw": 3559,
      "jonjon": 3560,
      "mmy": 3561,
      "proven": 3562,
      "vancou": 3563,
      "maroc": 3564,
      "first": 3565,
      "vancouver": 3566,
      "5n": 3567,
      "aria": 3568,
      "cre": 3569,
      "fbi": 3570,
      "gyal": 3571,
      "ihi": 3572,
      "oa": 3573,
      "pun": 3574,
      "plus": 3575,
      "qing": 3576,
      "kada": 3577,
      "mage": 3578,
      "niba": 3579,
      "batɔw": 3580,
      "bayɛlɛman": 3581,
      "naara": 3582,
      "seren": 3583,
      "fira": 3584,
      "sojan": 3585,
      "bɔmu": 3586,
      "hab": 3587,
      "kek": 3588,
      "deniw": 3589,
      "royal": 3590,
      "kulufulancɛ": 3591,
      "gingri": 3592,
      "sines": 3593,
      "buku": 3594,
      "busines": 3595,
      "paren": 3596,
      "kumaso": 3597,
      "dɔgɔmani": 3598,
      "dunlap": 3599,
      "cɛnni": 3600,
      "tabolow": 3601,
      "argen": 3602,
      "isse": 3603,
      "komite": 3604,
      "station": 3605,
      "jong": 3606,
      "zoni": 3607,
      "tilemafɛ": 3608,
      "bayɛlɛmacakɛda": 3609,
      "romney": 3610,
      "vatican": 3611,
      "ɲɔgon": 3612,
      "hism": 3613,
      "florida": 3614,
      "wolowila": 3615,
      "francisco": 3616,
      "hɔngiri": 3617,
      "armenie": 3618,
      "gingrich": 3619,
      "business": 3620,
      "gt": 3621,
      "lt": 3622,
      "nda": 3623,
      "tru": 3624,
      "vol": 3625,
      "ych": 3626,
      "intan": 3627,
      "lago": 3628,
      "labara": 3629,
      "madimi": 3630,
      "maori": 3631,
      "ɔnw": 3632,
      "kɛminɛ": 3633,
      "rael": 3634,
      "tis": 3635,
      "nav": 3636,
      "nataa": 3637,
      "tasili": 3638,
      "sap": 3639,
      "manbaw": 3640,
      "bish": 3641,
      "digi": 3642,
      "catho": 3643,
      "boso": 3644,
      "tei": 3645,
      "miles": 3646,
      "tunma": 3647,
      "tope": 3648,
      "cɛlu": 3649,
      "suisse": 3650,
      "camacɛ": 3651,
      "netur": 3652,
      "yɛlɛmaliw": 3653,
      "janɲan": 3654,
      "jatekɛminɛ": 3655,
      "bɔni": 3656,
      "wiye": 3657,
      "mɔtɔ": 3658,
      "zambi": 3659,
      "fangamara": 3660,
      "baloɲini": 3661,
      "kunkofin": 3662,
      "itilizeli": 3663,
      "israel": 3664,
      "thood": 3665,
      "huhne": 3666,
      "tarikuw": 3667,
      "lyn": 3668,
      "perry": 3669,
      "arisi": 3670,
      "carili": 3671,
      "zoo": 3672,
      "italie": 3673,
      "italiyɛn": 3674,
      "angiletɛri": 3675,
      "sugandila": 3676,
      "off": 3677,
      "jamanan": 3678,
      "golola": 3679,
      "kuntilenɲa": 3680,
      "asiransi": 3681,
      "tricera": 3682,
      "danielle": 3683,
      "karitiye": 3684,
      "australia": 3685,
      "valley": 3686,
      "drogene": 3687,
      "gɛrɛgɛrɛw": 3688,
      "jamanabolow": 3689,
      "casablan": 3690,
      "furɔntiyɛri": 3691,
      "party": 3692,
      "tibetan": 3693,
      "curry": 3694,
      "neider": 3695,
      "elizabeth": 3696,
      "jaraminɛjara": 3697,
      "venezuwe": 3698,
      "hydrogene": 3699,
      "planned": 3700,
      "arias": 3701,
      "parenthood": 3702,
      "bishkek": 3703,
      "jatekɛminɛbaliya": 3704,
      "triceratope": 3705,
      "casablanca": 3706,
      "atɔ": 3707,
      "h5n": 3708,
      "over": 3709,
      "kaga": 3710,
      "ladegi": 3711,
      "dirɛ": 3712,
      "santi": 3713,
      "sɛsɔn": 3714,
      "giza": 3715,
      "jison": 3716,
      "jiira": 3717,
      "hagen": 3718,
      "miriya": 3719,
      "coste": 3720,
      "copen": 3721,
      "fɛnkura": 3722,
      "toru": 3723,
      "cific": 3724,
      "bulɔn": 3725,
      "maraɲɛmɔgɔ": 3726,
      "kɛlɛkɛla": 3727,
      "kɛlɛwale": 3728,
      "yɛlɛmala": 3729,
      "pacific": 3730,
      "alakama": 3731,
      "wifi": 3732,
      "waleɲuma": 3733,
      "futeni": 3734,
      "howard": 3735,
      "beleba": 3736,
      "fiyɛnkolo": 3737,
      "lajɛlikɛla": 3738,
      "hakilinasira": 3739,
      "hero": 3740,
      "marise": 3741,
      "forokoni": 3742,
      "faratila": 3743,
      "hua": 3744,
      "kalatalaw": 3745,
      "telescope": 3746,
      "polosi": 3747,
      "jagoyalen": 3748,
      "badagolo": 3749,
      "schneider": 3750,
      "cuba": 3751,
      "sanbɛlɛbolikɛla": 3752,
      "jakumawaraw": 3753,
      "canal": 3754,
      "ɲanajɛlaw": 3755,
      "dirapo": 3756,
      "carter": 3757,
      "etique": 3758,
      "winter": 3759,
      "tɛrɛntɛn": 3760,
      "soviet": 3761,
      "sovietique": 3762,
      "rugby": 3763,
      "talɔnw": 3764,
      "photons": 3765,
      "18na": 3766,
      "kɔnɔtɔnnan": 3767,
      "street": 3768,
      "kalifɔrini": 3769,
      "bayirikaw": 3770,
      "guinness": 3771,
      "pɔlɔɲi": 3772,
      "siminoff": 3773,
      "provenzan": 3774,
      "navy": 3775,
      "catholic": 3776,
      "h5n1": 3777,
      "costello": 3778,
      "copenhagen": 3779,
      "waleɲumadɔn": 3780,
      ",-": 3781,
      "atari": 3782,
      "cĩa": 3783,
      "dge": 3784,
      "emisi": 3785,
      "igo": 3786,
      "mwa": 3787,
      "mri": 3788,
      "ngũthi": 3789,
      "olozi": 3790,
      "ũĩ": 3791,
      "ɔtɛli": 3792,
      "̀li": 3793,
      "matũra": 3794,
      "engen": 3795,
      "ɛnfili": 3796,
      "wao": 3797,
      "simp": 3798,
      "ribo": 3799,
      "lolo": 3800,
      "fɛtiw": 3801,
      "bɛjɛn": 3802,
      "kurĩ": 3803,
      "fimaw": 3804,
      "gataga": 3805,
      "dile": 3806,
      "faleno": 3807,
      "camp": 3808,
      "boɔ": 3809,
      "sojanw": 3810,
      "tɛkin": 3811,
      "mize": 3812,
      "tunye": 3813,
      "waat": 3814,
      "tano": 3815,
      "jamanamarabulon": 3816,
      "kelena": 3817,
      "rĩmwe": 3818,
      "kalanfa": 3819,
      "sendɔn": 3820,
      "kɛlɛfɔlɔ": 3821,
      "duuruw": 3822,
      "nĩkĩ": 3823,
      "nĩcia": 3824,
      "tileben": 3825,
      "dilaneno": 3826,
      "yanse": 3827,
      "kĩhonia": 3828,
      "naaniw": 3829,
      "mũthen": 3830,
      "kũĩ": 3831,
      "kũgi": 3832,
      "damaga": 3833,
      "ɲafan": 3834,
      "guwan": 3835,
      "woyaze": 3836,
      "gũthoma": 3837,
      "gɛlɛma": 3838,
      "hio": 3839,
      "tamala": 3840,
      "dɔgɔcɛ": 3841,
      "nɔnili": 3842,
      "tũmĩ": 3843,
      "songɔ": 3844,
      "mwega": 3845,
      "mwerũ": 3846,
      "natila": 3847,
      "jigili": 3848,
      "amazoni": 3849,
      "woyasikɛlaw": 3850,
      "jirie": 3851,
      "ɛntɛrɛni": 3852,
      "sunɔkɔ": 3853,
      "jɔyɔrɔla": 3854,
      "finitiw": 3855,
      "cano": 3856,
      "tanifila": 3857,
      "fotokopi": 3858,
      "aigi": 3859,
      "ɲɛfɔlila": 3860,
      "chappan": 3861,
      "ferefɛnw": 3862,
      "ɲɔgɔcɛ": 3863,
      "bolonɔnbila": 3864,
      "jalakila": 3865,
      "sanfɛkalansola": 3866,
      "athaki": 3867,
      "metroplus": 3868,
      "ɲɛkɛnw": 3869,
      "urisiw": 3870,
      "petersburg": 3871,
      "fɛnɲɛnɛmaniw": 3872,
      "gwete": 3873,
      "sidafiriki": 3874,
      "sikhs": 3875,
      "tuthũko": 3876,
      "mũrimũ": 3877,
      "nyũmba": 3878,
      "mwana": 3879,
      "gɔfɛrɛneman": 3880,
      "kundalini": 3881,
      "bɔɲɔgɔngo": 3882,
      "utc": 3883,
      "dantanfɛnw": 3884,
      "morioriw": 3885,
      "mathako": 3886,
      "nikiliyɛri": 3887,
      "nɔrɔmaliw": 3888,
      "marũa": 3889,
      "ndolan": 3890,
      "janaja": 3891,
      "kapisili": 3892,
      "takofilana": 3893,
      "volcano": 3894,
      "intanet": 3895,
      "atarii": 3896,
      "emisifɛri": 3897,
      "ɛnfiliyanse": 3898,
      "riboti": 3899,
      "gatagatĩ": 3900,
      "tɛkinolozi": 3901,
      "mũthenya": 3902,
      "ace": 3903,
      "asie": 3904,
      "icio": 3905,
      "ihinda": 3906,
      "khar": 3907,
      "ngere": 3908,
      "ĩtie": 3909,
      "ũri": 3910,
      "ũgĩ": 3911,
      "magĩ": 3912,
      "liye": 3913,
      "lisiyɔn": 3914,
      "kɛlila": 3915,
      "kɛleno": 3916,
      "rikana": 3917,
      "sayansi": 3918,
      "java": 3919,
      "urrican": 3920,
      "yɛriw": 3921,
      "tanĩ": 3922,
      "tanyihĩ": 3923,
      "kulusanfɛ": 3924,
      "bɛɛla": 3925,
      "meci": 3926,
      "lajɛlila": 3927,
      "ganĩte": 3928,
      "gĩte": 3929,
      "mũingĩ": 3930,
      "kũgeria": 3931,
      "kũringana": 3932,
      "belebaw": 3933,
      "jɛndili": 3934,
      "themba": 3935,
      "taratara": 3936,
      "surunɲa": 3937,
      "foyisi": 3938,
      "dilaniw": 3939,
      "aikari": 3940,
      "camancɛla": 3941,
      "schengen": 3942,
      "gĩrĩirwo": 3943,
      "faralenɲɔgɔnkan": 3944,
      "bakurubala": 3945,
      "sɛtanburu": 3946,
      "nɔkɔya": 3947,
      "dulonni": 3948,
      "fiyɛnkolonba": 3949,
      "kũririkana": 3950,
      "mwaka": 3951,
      "simpson": 3952,
      "ngeretha": 3953,
      "urricane": 3954,
      "azan": 3955,
      "rinĩ": 3956,
      "ĩno": 3957,
      "ũĩkaine": 3958,
      "lajɛn": 3959,
      "babu": 3960,
      "rizi": 3961,
      "river": 3962,
      "bɛra": 3963,
      "jaleno": 3964,
      "sofiɲɛbila": 3965,
      "mɔgɔta": 3966,
      "fanka": 3967,
      "duguni": 3968,
      "thingithia": 3969,
      "suban": 3970,
      "butu": 3971,
      "cogoyabala": 3972,
      "gĩthingithia": 3973,
      "kɔfɛra": 3974,
      "dɛmisɛni": 3975,
      "juku": 3976,
      "wulakɔnɔna": 3977,
      "gũkũ": 3978,
      "gũkorwo": 3979,
      "makonaini": 3980,
      "amerikɛn": 3981,
      "hetũ": 3982,
      "kontirɛ": 3983,
      "archi": 3984,
      "samalikɛ": 3985,
      "pankurula": 3986,
      "pankurusow": 3987,
      "thomi": 3988,
      "hĩn": 3989,
      "nisondi": 3990,
      "bũrũrinĩ": 3991,
      "dɔngɔnɔn": 3992,
      "desɛnw": 3993,
      "zariden": 3994,
      "mbeca": 3995,
      "teithia": 3996,
      "kontirɛri": 3997,
      "cɔ": 3998,
      "ethe": 3999,
      "latikɛ": 4000,
      "machu": 4001,
      "mathomo": 4002,
      "ɛnsili": 4003,
      "jatalan": 4004,
      "fagana": 4005,
      "kĩre": 4006,
      "kanaga": 4007,
      "mosa": 4008,
      "mũhi": 4009,
      "gũthondeka": 4010,
      "yothe": 4011,
      "tũmaga": 4012,
      "kontinan": 4013,
      "barabara": 4014,
      "kalansola": 4015,
      "ɲɛɲinili": 4016,
      "norway": 4017,
      "tɛmɛnikɔ": 4018,
      "ways": 4019,
      "penɛnsili": 4020,
      "kanitha": 4021,
      "paraguay": 4022,
      "airways": 4023,
      "picchu": 4024,
      "mũhiano": 4025,
      "dɔndɔn": 4026,
      "kĩndũ": 4027,
      "gũkĩra": 4028,
      "ŋunuŋunu": 4029,
      "kurakurayara": 4030,
      "dunuyala": 4031,
      "gũtirĩ": 4032,
      "manene": 4033,
      "nĩya": 4034,
      "funuw": 4035,
      "nayo": 4036,
      "kupulu": 4037,
      "fashi": 4038,
      "kalanlila": 4039,
      "danɛ": 4040,
      "pock": 4041,
      "kɛrɛyɔn": 4042,
      "pelago": 4043,
      "ɲɔgɔndantulɔn": 4044,
      "fɔlɔfɔlɔfɛnw": 4045,
      "gerebɔ": 4046,
      "oyapock": 4047,
      "ople": 4048,
      "archipelago": 4049,
      "fashion": 4050,
      "má": 4051,
      "bamanan": 4052,
      "\"\"": 4053,
      "minni": 4054,
      "sú": 4055,
      "lama": 4056,
      "yɛ̀": 4057,
      "kona": 4058,
      "dɔ́": 4059,
      "togo": 4060,
      "tanga": 4061,
      "suruku": 4062,
      "ft": 4063,
      "enw": 4064,
      "sɔgɔma": 4065,
      "isira": 4066,
      "tanw": 4067,
      "gwan": 4068,
      "kene": 4069,
      "sí": 4070,
      "jɛya": 4071,
      "funun": 4072,
      "uman": 4073,
      "nima": 4074,
      "welewele": 4075,
      "sɔnnikɛla": 4076,
      "kú": 4077,
      "kata": 4078,
      "maaw": 4079,
      "fala": 4080,
      "bè": 4081,
      "somɔgɔw": 4082,
      "isirayɛli": 4083,
      "kelenya": 4084,
      "dɔwɛrɛ": 4085,
      "lamɛn": 4086,
      "kinin": 4087,
      "maloya": 4088,
      "nba": 4089,
      "yaala": 4090,
      "siranna": 4091,
      "olo": 4092,
      "daba": 4093,
      "musaka": 4094,
      "bun": 4095,
      "sabali": 4096,
      "nyogon": 4097,
      "jatigi": 4098,
      "jija": 4099,
      "cɛ̀": 4100,
      "janko": 4101,
      "galile": 4102,
      "layi": 4103,
      "mɔgɔya": 4104,
      "kɔrɔbaw": 4105,
      "sugunɛ": 4106,
      "sibiri": 4107,
      "dén": 4108,
      "kiran": 4109,
      "senna": 4110,
      "wuluw": 4111,
      "walan": 4112,
      "bannen": 4113,
      "kɔrɔɲɔgɔn": 4114,
      "bugun": 4115,
      "basigilen": 4116,
      "ciw": 4117,
      "kabakuru": 4118,
      "bɔyɔrɔ": 4119,
      "tanya": 4120,
      "bε": 4121,
      "karan": 4122,
      "wulila": 4123,
      "juli": 4124,
      "kɔrɔnfɛ": 4125,
      "khu": 4126,
      "tik": 4127,
      "jii": 4128,
      "fenw": 4129,
      "daɲɛw": 4130,
      "fanta": 4131,
      "ture": 4132,
      "kunma": 4133,
      "balimaw": 4134,
      "fɔcogo": 4135,
      "bolofara": 4136,
      "rinɛti": 4137,
      "hadamadenya": 4138,
      "erɔ": 4139,
      "ɛntɛrinɛti": 4140,
      "laadaw": 4141,
      "nafolotigi": 4142,
      "lankolon": 4143,
      "dabɔ": 4144,
      "par": 4145,
      "banaw": 4146,
      "balimamuso": 4147,
      "makɔ": 4148,
      "niyan": 4149,
      "zeri": 4150,
      "labɛnnen": 4151,
      "saheli": 4152,
      "cun": 4153,
      "ladɔn": 4154,
      "nama": 4155,
      "site": 4156,
      "dafɛ": 4157,
      "tɔnba": 4158,
      "labɛnni": 4159,
      "kɔsɔn": 4160,
      "tobili": 4161,
      "ganna": 4162,
      "tɛmɛnnen": 4163,
      "tɛmu": 4164,
      "tubabu": 4165,
      "tà": 4166,
      "gui": 4167,
      "ment": 4168,
      "inter": 4169,
      "bɔ́": 4170,
      "nyini": 4171,
      "ebola": 4172,
      "gal": 4173,
      "fá": 4174,
      "dugulen": 4175,
      "mene": 4176,
      "ŋa": 4177,
      "kán": 4178,
      "diyara": 4179,
      "asia": 4180,
      "raba": 4181,
      "fí": 4182,
      "jɛkuluw": 4183,
      "munun": 4184,
      "africa": 4185,
      "dilanna": 4186,
      "alamisa": 4187,
      "wiki": 4188,
      "lasigi": 4189,
      "sá": 4190,
      "kanma": 4191,
      "faara": 4192,
      "sinin": 4193,
      "kalanko": 4194,
      "alizeri": 4195,
      "jaabili": 4196,
      "tugunni": 4197,
      "il": 4198,
      "ɲɔni": 4199,
      "tiɲɛna": 4200,
      "kuda": 4201,
      "kibaro": 4202,
      "ɛndu": 4203,
      "baranin": 4204,
      "gra": 4205,
      "jirin": 4206,
      "zaki": 4207,
      "mogow": 4208,
      "anna": 4209,
      "kɛwalew": 4210,
      "samo": 4211,
      "sɔrɔlen": 4212,
      "suba": 4213,
      "wilila": 4214,
      "seleken": 4215,
      "lisi": 4216,
      "timi": 4217,
      "mankutu": 4218,
      "taabolow": 4219,
      "seri": 4220,
      "dilen": 4221,
      "samiya": 4222,
      "layidu": 4223,
      "iyo": 4224,
      "damu": 4225,
      "dalaw": 4226,
      "ɲɛdɔn": 4227,
      "dɔnna": 4228,
      "sine": 4229,
      "yɛlɛla": 4230,
      "numan": 4231,
      "sogow": 4232,
      "mbou": 4233,
      "np": 4234,
      "bale": 4235,
      "kori": 4236,
      "ɔrɔma": 4237,
      "duba": 4238,
      "danni": 4239,
      "hiji": 4240,
      "seginni": 4241,
      "aki": 4242,
      "sho": 4243,
      "yuru": 4244,
      "rain": 4245,
      "bɔɔ": 4246,
      "yɛrɛta": 4247,
      "dilancogo": 4248,
      "kisɛya": 4249,
      "kunnafoniw": 4250,
      "sogoma": 4251,
      "tilebinyanfan": 4252,
      "aani": 4253,
      "minɛni": 4254,
      "ɲɛnajɛw": 4255,
      "kungolo": 4256,
      "porozɛ": 4257,
      "pri": 4258,
      "sy": 4259,
      "up": 4260,
      "kabɛn": 4261,
      "ladon": 4262,
      "kɛwale": 4263,
      "sebe": 4264,
      "denmuso": 4265,
      "jatera": 4266,
      "irili": 4267,
      "nɔminɛ": 4268,
      "kudayi": 4269,
      "tige": 4270,
      "tabaga": 4271,
      "kuluba": 4272,
      "pisi": 4273,
      "tɔgɔw": 4274,
      "tɔgɔda": 4275,
      "jamakuluba": 4276,
      "lakalira": 4277,
      "selekenaani": 4278,
      "tle": 4279,
      "kanba": 4280,
      "gama": 4281,
      "farin": 4282,
      "colo": 4283,
      "né": 4284,
      "blon": 4285,
      "sion": 4286,
      "tel": 4287,
      "sub": 4288,
      "perepere": 4289,
      "seleke": 4290,
      "afi": 4291,
      "baki": 4292,
      "war": 4293,
      "fì": 4294,
      "gaw": 4295,
      "hakilijigin": 4296,
      "tigilamɔgɔw": 4297,
      "npalan": 4298,
      "aga": 4299,
      "ezi": 4300,
      "rasi": 4301,
      "nam": 4302,
      "komini": 4303,
      "samaw": 4304,
      "kila": 4305,
      "fɔlaw": 4306,
      "manamana": 4307,
      "balolen": 4308,
      "alo": 4309,
      "cm": 4310,
      "swe": 4311,
      "mago": 4312,
      "nimisa": 4313,
      "dà": 4314,
      "fale": 4315,
      "dɔnbagaw": 4316,
      "senɲɛ": 4317,
      "dansigi": 4318,
      "benin": 4319,
      "sɛbɛncogo": 4320,
      "ard": 4321,
      "kunnawolo": 4322,
      "baarakɛcogo": 4323,
      "farankan": 4324,
      "mai": 4325,
      "nafɛn": 4326,
      "ses": 4327,
      "mɔgɔkɔrɔbaw": 4328,
      "dumini": 4329,
      "kolow": 4330,
      "gannen": 4331,
      "ston": 4332,
      "minɛnaw": 4333,
      "gafew": 4334,
      "yuruku": 4335,
      "bya": 4336,
      "dd": 4337,
      "gina": 4338,
      "ore": 4339,
      "ɔli": 4340,
      "lawale": 4341,
      "libya": 4342,
      "soron": 4343,
      "kɔla": 4344,
      "ers": 4345,
      "sirili": 4346,
      "bangelen": 4347,
      "murutili": 4348,
      "wolonfila": 4349,
      "jugun": 4350,
      "pana": 4351,
      "angola": 4352,
      "mac": 4353,
      "sako": 4354,
      "ɲɛci": 4355,
      "bɔw": 4356,
      "coun": 4357,
      "demo": 4358,
      "dugumɛnɛ": 4359,
      "sinsi": 4360,
      "yɛlɛmani": 4361,
      "juw": 4362,
      "homo": 4363,
      "karidon": 4364,
      "feereli": 4365,
      "ɲininiw": 4366,
      "wɛri": 4367,
      "galabu": 4368,
      "nisɔndiya": 4369,
      "degeli": 4370,
      "trans": 4371,
      "pereperelatigɛ": 4372,
      "bs": 4373,
      "india": 4374,
      "lay": 4375,
      "kɛba": 4376,
      "kosɔbɛ": 4377,
      "manto": 4378,
      "gami": 4379,
      "sanyɛlɛma": 4380,
      "lee": 4381,
      "cara": 4382,
      "kegu": 4383,
      "sum": 4384,
      "doli": 4385,
      "taasira": 4386,
      "taasibila": 4387,
      "fɔlɔla": 4388,
      "wisi": 4389,
      "balawu": 4390,
      "jɛnsɛnna": 4391,
      "masurunya": 4392,
      "turisimu": 4393,
      "rainbow": 4394,
      "ao": 4395,
      "bwe": 4396,
      "kàn": 4397,
      "kuuru": 4398,
      "boda": 4399,
      "dugujukɔrɔ": 4400,
      "mew": 4401,
      "velo": 4402,
      "nyin": 4403,
      "furulen": 4404,
      "rena": 4405,
      "nisongo": 4406,
      "country": 4407,
      "nten": 4408,
      "inf": 4409,
      "kamana": 4410,
      "koyi": 4411,
      "kokɔrɔw": 4412,
      "dagan": 4413,
      "manba": 4414,
      "big": 4415,
      "filiw": 4416,
      "gora": 4417,
      "sɔrɔsira": 4418,
      "jɛw": 4419,
      "baaradaw": 4420,
      "domini": 4421,
      "mɛnɛn": 4422,
      "ɲangili": 4423,
      "misaliw": 4424,
      "muguci": 4425,
      "african": 4426,
      "dolow": 4427,
      "’’": 4428,
      "lasɔrɔ": 4429,
      "kodon": 4430,
      "sir": 4431,
      "tabali": 4432,
      "locogo": 4433,
      "dam": 4434,
      "miseli": 4435,
      "roma": 4436,
      "tuka": 4437,
      "jɔlan": 4438,
      "ɲɛngoya": 4439,
      "hou": 4440,
      "gɔli": 4441,
      "dine": 4442,
      "ding": 4443,
      "pɛri": 4444,
      "misɛnni": 4445,
      "zuluye": 4446,
      "10": 4447,
      "lasɔn": 4448,
      "lit": 4449,
      "kɔmi": 4450,
      "lɛki": 4451,
      "col": 4452,
      "baarala": 4453,
      "kɔrɔlenw": 4454,
      "maracogo": 4455,
      "tɔɔrɔ": 4456,
      "jɔcogo": 4457,
      "zimba": 4458,
      "kumakanw": 4459,
      "yanw": 4460,
      "yanfa": 4461,
      "sarakaw": 4462,
      "seginn": 4463,
      "tagali": 4464,
      "ɲininikɛla": 4465,
      "ála": 4466,
      "parti": 4467,
      "blo": 4468,
      "bug": 4469,
      "ep": 4470,
      "mɔg": 4471,
      "wn": 4472,
      "kɛnɛn": 4473,
      "daan": 4474,
      "gori": 4475,
      "boa": 4476,
      "mɔgɔmuru": 4477,
      "tomati": 4478,
      "tannan": 4479,
      "cide": 4480,
      "sigilanw": 4481,
      "senda": 4482,
      "tɔli": 4483,
      "nom": 4484,
      "ches": 4485,
      "jour": 4486,
      "stri": 4487,
      "falenni": 4488,
      "dɛsɛlen": 4489,
      "tɛmɛnenw": 4490,
      "kɔ́nɔ": 4491,
      "republic": 4492,
      "video": 4493,
      ".,": 4494,
      "eki": 4495,
      "puru": 4496,
      "prin": 4497,
      "lar": 4498,
      "masuru": 4499,
      "kɛ̀": 4500,
      "bajan": 4501,
      "kokɔrɔ": 4502,
      "sation": 4503,
      "mankun": 4504,
      "kuwa": 4505,
      "kuri": 4506,
      "jati": 4507,
      "kis": 4508,
      "cape": 4509,
      "jigina": 4510,
      "mie": 4511,
      "cour": 4512,
      "baarayɔrɔ": 4513,
      "sindi": 4514,
      "tamasiɲɛ": 4515,
      "kodɔnbali": 4516,
      "teliman": 4517,
      "lasera": 4518,
      "albu": 4519,
      "baaran": 4520,
      "kɔkanna": 4521,
      "buluw": 4522,
      "màa": 4523,
      "kuncɛli": 4524,
      "kunnafonidila": 4525,
      "denbayaw": 4526,
      "zimbabwe": 4527,
      "ds": 4528,
      "ew": 4529,
      "kru": 4530,
      "sina": 4531,
      "kasegin": 4532,
      "radio": 4533,
      "tive": 4534,
      "fɛgɛn": 4535,
      "kunbɛn": 4536,
      "kɔɔ": 4537,
      "rezo": 4538,
      "robert": 4539,
      "denni": 4540,
      "net": 4541,
      "chine": 4542,
      "fariman": 4543,
      "sarala": 4544,
      "dunaw": 4545,
      "lakanabaliya": 4546,
      "jigitigɛ": 4547,
      "tagala": 4548,
      "bangebaw": 4549,
      "warabaw": 4550,
      "dɔgɔyalen": 4551,
      "yamaruyalen": 4552,
      "pasifiki": 4553,
      "lasɔmini": 4554,
      "faamaso": 4555,
      "kiiritigɛlaw": 4556,
      "cra": 4557,
      "gla": 4558,
      "ose": 4559,
      "sky": 4560,
      "uta": 4561,
      "vin": 4562,
      "bat": 4563,
      "baye": 4564,
      "mann": 4565,
      "distri": 4566,
      "ler": 4567,
      "giliw": 4568,
      "delina": 4569,
      "robin": 4570,
      "fort": 4571,
      "ɲɔgɔnkɔ": 4572,
      "dondaw": 4573,
      "danw": 4574,
      "tɔkɔ": 4575,
      "ziw": 4576,
      "sɛbɛnniw": 4577,
      "mɔkɔ": 4578,
      "hol": 4579,
      "tamaw": 4580,
      "vice": 4581,
      "fangaba": 4582,
      "karili": 4583,
      "tino": 4584,
      "belebelebaw": 4585,
      "ires": 4586,
      "bolodali": 4587,
      "ntolantan": 4588,
      "sabaliya": 4589,
      ".)": 4590,
      "augu": 4591,
      "idoro": 4592,
      "oi": 4593,
      "rc": 4594,
      "sci": 4595,
      "ans": 4596,
      "ines": 4597,
      "katoli": 4598,
      "lateliya": 4599,
      "kɛti": 4600,
      "babili": 4601,
      "tica": 4602,
      "nadal": 4603,
      "kofɔli": 4604,
      "komen": 4605,
      "ɔgi": 4606,
      "dae": 4607,
      "dabilali": 4608,
      "jatala": 4609,
      "ɲɛjugu": 4610,
      "tɛka": 4611,
      "bɔliw": 4612,
      "tombou": 4613,
      "jɛlenw": 4614,
      "kelenkelen": 4615,
      "yiriw": 4616,
      "buf": 4617,
      "bueno": 4618,
      "donfiniw": 4619,
      "senbɔ": 4620,
      "piti": 4621,
      "polɔ": 4622,
      "kurayali": 4623,
      "sɔnkun": 4624,
      "sariyakolo": 4625,
      "dugukolow": 4626,
      "dugukolokɔkan": 4627,
      "hoo": 4628,
      "sɛnsɛn": 4629,
      "mununa": 4630,
      "shan": 4631,
      "dugumala": 4632,
      "wasadenw": 4633,
      "wɛsɛ": 4634,
      "labilalen": 4635,
      "telefɔniw": 4636,
      "fernan": 4637,
      "briti": 4638,
      "ŋanamu": 4639,
      "atlantic": 4640,
      "sukarobana": 4641,
      "ctou": 4642,
      "virgin": 4643,
      "kisɛcilaw": 4644,
      "azer": 4645,
      "bagabagali": 4646,
      "prince": 4647,
      "tombouctou": 4648,
      "buenos": 4649,
      "aires": 4650,
      "emi": 4651,
      "epi": 4652,
      "shar": 4653,
      "turun": 4654,
      "wɔgɔ": 4655,
      "inc": 4656,
      "yetina": 4657,
      "wata": 4658,
      "nas": 4659,
      "bie": 4660,
      "fisi": 4661,
      "dila": 4662,
      "dibila": 4663,
      "falaka": 4664,
      "cali": 4665,
      "tɛlɛ": 4666,
      "kɔsi": 4667,
      "kɔkɔnɔ": 4668,
      "git": 4669,
      "yɛr": 4670,
      "yɛra": 4671,
      "mitte": 4672,
      "tomi": 4673,
      "dust": 4674,
      "nê": 4675,
      "paro": 4676,
      "pian": 4677,
      "ges": 4678,
      "panpan": 4679,
      "chri": 4680,
      "cher": 4681,
      "sɔngɔn": 4682,
      "mɔw": 4683,
      "binkani": 4684,
      "viyetina": 4685,
      "rinkan": 4686,
      "kings": 4687,
      "all": 4688,
      "terdam": 4689,
      "finland": 4690,
      "quet": 4691,
      "dogoni": 4692,
      "umacher": 4693,
      "kɔniw": 4694,
      "schumacher": 4695,
      "congo": 4696,
      "phnom": 4697,
      "kuluwow": 4698,
      "barcelo": 4699,
      "committe": 4700,
      "arabadon": 4701,
      "cɛnimusoya": 4702,
      "ctoria": 4703,
      "portug": 4704,
      "legelege": 4705,
      "makɔnɔni": 4706,
      "masalabolo": 4707,
      "lafiyɛnbɔ": 4708,
      "jenini": 4709,
      "amsterdam": 4710,
      "partizan": 4711,
      "buffalo": 4712,
      "viyetinamu": 4713,
      "dw": 4714,
      "edi": 4715,
      "gdp": 4716,
      "ska": 4717,
      "smi": 4718,
      "svati": 4719,
      "zma": 4720,
      "kaz": 4721,
      "lak": 4722,
      "layɛlɛ": 4723,
      "mafɔ": 4724,
      "yeni": 4725,
      "balon": 4726,
      "balɔn": 4727,
      "badingɛ": 4728,
      "beau": 4729,
      "anikasegin": 4730,
      "lendo": 4731,
      "kilina": 4732,
      "faka": 4733,
      "gol": 4734,
      "fɔw": 4735,
      "cas": 4736,
      "card": 4737,
      "sokan": 4738,
      "sokɔnɔna": 4739,
      "bɔtaw": 4740,
      "jiman": 4741,
      "misiti": 4742,
      "mukanw": 4743,
      "tanɲa": 4744,
      "cɛɛ": 4745,
      "sù": 4746,
      "yɛrɛɲɛ": 4747,
      "taako": 4748,
      "maraba": 4749,
      "yɛlɛmaba": 4750,
      "positi": 4751,
      "banabatɔw": 4752,
      "sarasvati": 4753,
      "tɔgɔba": 4754,
      "diɲɛlamini": 4755,
      "puer": 4756,
      "dɛmɛdo": 4757,
      "sumayara": 4758,
      "balofɛnw": 4759,
      "barala": 4760,
      "milimɛtiri": 4761,
      "artic": 4762,
      "linɔ": 4763,
      "marie": 4764,
      "wang": 4765,
      "jɔlisira": 4766,
      "labaaralikɛla": 4767,
      "tayilandi": 4768,
      "henry": 4769,
      "sisimi": 4770,
      "wasadenya": 4771,
      "fasaw": 4772,
      "dinoz": 4773,
      "basikɛti": 4774,
      "lahalaya": 4775,
      "virgini": 4776,
      "caroline": 4777,
      "kyoto": 4778,
      "samoa": 4779,
      "chester": 4780,
      "district": 4781,
      "british": 4782,
      "portugal": 4783,
      "zmapp": 4784,
      "misitisisimi": 4785,
      "a1": 4786,
      "dv": 4787,
      "dron": 4788,
      "drun": 4789,
      "elɛki": 4790,
      "ffer": 4791,
      "phan": 4792,
      "sper": 4793,
      "squa": 4794,
      "ui": 4795,
      "xin": 4796,
      "ys": 4797,
      "zɔ": 4798,
      "zhab": 4799,
      "lafilili": 4800,
      "liyɔn": 4801,
      "niwo": 4802,
      "bariw": 4803,
      "mino": 4804,
      "korɔ": 4805,
      "siban": 4806,
      "sifilɛli": 4807,
      "siyɔmu": 4808,
      "bes": 4809,
      "tasiyɔn": 4810,
      "taanikasegin": 4811,
      "lope": 4812,
      "kankun": 4813,
      "mand": 4814,
      "manchester": 4815,
      "jakar": 4816,
      "fair": 4817,
      "gical": 4818,
      "bɔlila": 4819,
      "mɔgɔsi": 4820,
      "mikoro": 4821,
      "tom": 4822,
      "duguman": 4823,
      "ford": 4824,
      "subra": 4825,
      "kulufurancɛ": 4826,
      "nɛki": 4827,
      "faraɲɔgɔn": 4828,
      "kalanba": 4829,
      "meti": 4830,
      "meturo": 4831,
      "wuri": 4832,
      "bolikɛ": 4833,
      "pitts": 4834,
      "piquet": 4835,
      "pou": 4836,
      "potro": 4837,
      "banasugu": 4838,
      "kurabɔ": 4839,
      "mole": 4840,
      "chen": 4841,
      "manian": 4842,
      "hor": 4843,
      "kisɛni": 4844,
      "falenyɔrɔ": 4845,
      "sinsinna": 4846,
      "bagangɛn": 4847,
      "fɔlikulu": 4848,
      "shya": 4849,
      "lines": 4850,
      "kɔkɔjikurun": 4851,
      "faratiw": 4852,
      "kasaraw": 4853,
      "hindi": 4854,
      "bereni": 4855,
      "kalatasɛbɛn": 4856,
      "polis": 4857,
      "siranɲan": 4858,
      "sitiw": 4859,
      "wilikajɔ": 4860,
      "kasobɔn": 4861,
      "ɲɛfɔra": 4862,
      "balasubra": 4863,
      "ɲɛnɛjɛw": 4864,
      "wɔli": 4865,
      "scot": 4866,
      "labilalenw": 4867,
      "lunɛtiw": 4868,
      "stephen": 4869,
      "yɛrɛmahɔrɔnyalen": 4870,
      "kɛnɛkantaw": 4871,
      "kisitan": 4872,
      "pɔmi": 4873,
      "11n": 4874,
      "ɲanajɛw": 4875,
      "bɛrɛla": 4876,
      "bɛrɛki": 4877,
      "nunjanw": 4878,
      "bugulen": 4879,
      "sikhism": 4880,
      "antarc": 4881,
      "jerusa": 4882,
      "rossby": 4883,
      "tasumajisisi": 4884,
      "ngawang": 4885,
      "onow": 4886,
      "miller": 4887,
      "jirinɔnɔ": 4888,
      "science": 4889,
      "azerbajan": 4890,
      "califor": 4891,
      "committee": 4892,
      "puerto": 4893,
      "dvd": 4894,
      "drung": 4895,
      "elɛkit": 4896,
      "xinhua": 4897,
      "balasubramanian": 4898,
      "aa": 4899,
      "avi": 4900,
      "asus": 4901,
      "acide": 4902,
      "bran": 4903,
      "ctus": 4904,
      "dz": 4905,
      "druk": 4906,
      "ega": 4907,
      "east": 4908,
      "fred": 4909,
      "gps": 4910,
      "kwen": 4911,
      "nyira": 4912,
      "ove": 4913,
      "pry": 4914,
      "pure": 4915,
      "rsp": 4916,
      "von": 4917,
      "lagɛ": 4918,
      "labɔra": 4919,
      "litera": 4920,
      "nikile": 4921,
      "bach": 4922,
      "basiki": 4923,
      "ɔre": 4924,
      "waku": 4925,
      "minfɛnw": 4926,
      "nado": 4927,
      "kokow": 4928,
      "kojugun": 4929,
      "konɛki": 4930,
      "sigana": 4931,
      "sipɛri": 4932,
      "yao": 4933,
      "rim": 4934,
      "sagit": 4935,
      "dayɛlɛn": 4936,
      "davey": 4937,
      "bisiw": 4938,
      "sejong": 4939,
      "fima": 4940,
      "fire": 4941,
      "diili": 4942,
      "ninten": 4943,
      "kuntagala": 4944,
      "sɛni": 4945,
      "lando": 4946,
      "boks": 4947,
      "bobek": 4948,
      "kɔse": 4949,
      "jigini": 4950,
      "kɔnɔɔridinatɛri": 4951,
      "onych": 4952,
      "tommy": 4953,
      "jɛrɛ": 4954,
      "cie": 4955,
      "ciyala": 4956,
      "baarafɛɛrɛ": 4957,
      "yisi": 4958,
      "bolonia": 4959,
      "siracaman": 4960,
      "kulujan": 4961,
      "kulubaw": 4962,
      "kulumayɔrɔ": 4963,
      "nesie": 4964,
      "minɛta": 4965,
      "minɛkoɲuma": 4966,
      "farayɔrɔ": 4967,
      "bilaw": 4968,
      "marabaw": 4969,
      "maralikɛ": 4970,
      "merikɛn": 4971,
      "pago": 4972,
      "palɛ": 4973,
      "pakisitan": 4974,
      "erque": 4975,
      "jans": 4976,
      "poly": 4977,
      "sɛbɛnciyala": 4978,
      "geul": 4979,
      "pane": 4980,
      "kunafɔni": 4981,
      "chkin": 4982,
      "chner": 4983,
      "bɔnɛ": 4984,
      "damadian": 4985,
      "farikolola": 4986,
      "ɔridi": 4987,
      "hia": 4988,
      "zupu": 4989,
      "kisɛkisɛni": 4990,
      "vidal": 4991,
      "tham": 4992,
      "kurunni": 4993,
      "mɔbilibolilaw": 4994,
      "querque": 4995,
      "tonle": 4996,
      "amer": 4997,
      "hesper": 4998,
      "lakanabaw": 4999,
      "yaniw": 5000,
      "barikon": 5001,
      "tarius": 5002,
      "fɔlijɛkulu": 5003,
      "jamakafo": 5004,
      "feerefɛn": 5005,
      "allen": 5006,
      "hangeul": 5007,
      "tikɛwili": 5008,
      "bɔlɔlɔso": 5009,
      "beretaɲi": 5010,
      "takisiw": 5011,
      "eskimo": 5012,
      "stark": 5013,
      "fiɲɛsira": 5014,
      "sigiyɔrɔfalen": 5015,
      "siyakulu": 5016,
      "versai": 5017,
      "waleyakɛ": 5018,
      "gree": 5019,
      "fotow": 5020,
      "zapɔnɛ": 5021,
      "ɛsitoni": 5022,
      "labaarala": 5023,
      "chatham": 5024,
      "stanley": 5025,
      "tropi": 5026,
      "musakabɔ": 5027,
      "musashi": 5028,
      "gilasikuru": 5029,
      "origami": 5030,
      "furakɛlikɛla": 5031,
      "politikimɔgɔw": 5032,
      "farikoloɲɛnajɛw": 5033,
      "girasiyɔn": 5034,
      "kaniya": 5035,
      "asidi": 5036,
      "farafingɛrɛgɛrɛw": 5037,
      "jabiw": 5038,
      "danius": 5039,
      "11na": 5040,
      "lakanatigilamɔgɔ": 5041,
      "lozisiyɛ": 5042,
      "blake": 5043,
      "spring": 5044,
      "proton": 5045,
      "phone": 5046,
      "kopiyeli": 5047,
      "broad": 5048,
      "brother": 5049,
      "kurakuraya": 5050,
      "lamɛli": 5051,
      "ctron": 5052,
      "taratadon": 5053,
      "parks": 5054,
      "onion": 5055,
      "harappa": 5056,
      "electron": 5057,
      "sugunɔgɔ": 5058,
      "acta": 5059,
      "milky": 5060,
      "cook": 5061,
      "fogofogo": 5062,
      "pounds": 5063,
      "atilanta": 5064,
      "monasi": 5065,
      "fɛsɛfɛsɛli": 5066,
      "imigirasiyɔn": 5067,
      "katrina": 5068,
      "falklands": 5069,
      "kuntalajan": 5070,
      "lynn": 5071,
      "zoom": 5072,
      "venezuwelaka": 5073,
      "cɔyi": 5074,
      "prix": 5075,
      "kunnawolosɛbɛn": 5076,
      "oregon": 5077,
      "court": 5078,
      "tamasiɲɛw": 5079,
      "albuquerque": 5080,
      "lakkha": 5081,
      "pittsburgh": 5082,
      "poulos": 5083,
      "antarctica": 5084,
      "jerusalem": 5085,
      "dzong": 5086,
      "drukgyal": 5087,
      "nyiragongo": 5088,
      "ovechkin": 5089,
      "rspca": 5090,
      "literatire": 5091,
      "bachmann": 5092,
      "sagittarius": 5093,
      "nintendo": 5094,
      "onychus": 5095,
      "siracamanfarayɔrɔ": 5096,
      "polynesie": 5097,
      "hesperonychus": 5098,
      "versailles": 5099,
      "springboks": 5100,
      "62": 5101,
      "akisɛ": 5102,
      "asari": 5103,
      "bhu": 5104,
      "cani": 5105,
      "cyan": 5106,
      "dde": 5107,
      "ebay": 5108,
      "fani": 5109,
      "gp": 5110,
      "hurricane": 5111,
      "iw": 5112,
      "ofisi": 5113,
      "phali": 5114,
      "ptor": 5115,
      "ski": 5116,
      "stini": 5117,
      "scan": 5118,
      "tv": 5119,
      "uso": 5120,
      "wɔrɔnan": 5121,
      "xy": 5122,
      "xdr": 5123,
      "zaw": 5124,
      "ɛki": 5125,
      "kato": 5126,
      "kaɲa": 5127,
      "kamaw": 5128,
      "kabon": 5129,
      "labɛ": 5130,
      "mapu": 5131,
      "nitoro": 5132,
      "ragi": 5133,
      "bah": 5134,
      "ɛnfira": 5135,
      "wart": 5136,
      "ridge": 5137,
      "beni": 5138,
      "tasibila": 5139,
      "lopi": 5140,
      "lord": 5141,
      "sase": 5142,
      "samasa": 5143,
      "kanɛ": 5144,
      "kanbayɛlɛma": 5145,
      "lenz": 5146,
      "kuu": 5147,
      "kɔndi": 5148,
      "sekɔndi": 5149,
      "firansi": 5150,
      "didan": 5151,
      "digan": 5152,
      "disiki": 5153,
      "dibilen": 5154,
      "fati": 5155,
      "ɲɛɲin": 5156,
      "ɲɛɲi": 5157,
      "gofɛrɛne": 5158,
      "mɛɛ": 5159,
      "fɔbaw": 5160,
      "cap": 5161,
      "camb": 5162,
      "sowotoro": 5163,
      "sosigilan": 5164,
      "yɔrɔlajɛ": 5165,
      "bɔɲɔn": 5166,
      "kɔnɔlajɛ": 5167,
      "gɛw": 5168,
      "haro": 5169,
      "covid": 5170,
      "sɔrɔboso": 5171,
      "muham": 5172,
      "dewe": 5173,
      "devon": 5174,
      "togin": 5175,
      "waatiyɛlɛmaw": 5176,
      "fanbɛ": 5177,
      "uruzi": 5178,
      "cogoɲuman": 5179,
      "jɛmukanw": 5180,
      "fokali": 5181,
      "tanbul": 5182,
      "lɔɔn": 5183,
      "cii": 5184,
      "thur": 5185,
      "sukɔrɔ": 5186,
      "jamanadoro": 5187,
      "baarakɛra": 5188,
      "yisimi": 5189,
      "bolokɔfɛ": 5190,
      "bolofaraw": 5191,
      "doza": 5192,
      "tɔnɔn": 5193,
      "yɛlɛka": 5194,
      "kɔrɔtan": 5195,
      "bulɔ": 5196,
      "kurana": 5197,
      "dane": 5198,
      "marakɛlaw": 5199,
      "tɛmɛlenw": 5200,
      "sanfɛra": 5201,
      "zili": 5202,
      "piki": 5203,
      "kumacama": 5204,
      "pomu": 5205,
      "banayɛlɛma": 5206,
      "moll": 5207,
      "alarimu": 5208,
      "alaska": 5209,
      "jatela": 5210,
      "tumadɔw": 5211,
      "wales": 5212,
      "jolinɔ": 5213,
      "zayat": 5214,
      "sariyatali": 5215,
      "daminɛli": 5216,
      "sɔfiti": 5217,
      "hakɛyala": 5218,
      "jaate": 5219,
      "masamara": 5220,
      "peman": 5221,
      "nɔgɔma": 5222,
      "fangalatilen": 5223,
      "kunkokɔnɔnaw": 5224,
      "taliko": 5225,
      "hesus": 5226,
      "thecus": 5227,
      "furakɛra": 5228,
      "arns": 5229,
      "arthur": 5230,
      "ɲɔliw": 5231,
      "feerekɛso": 5232,
      "yeelenbaran": 5233,
      "istanbul": 5234,
      "pɔnyin": 5235,
      "kɔkɔjiw": 5236,
      "baarakɛbolo": 5237,
      "tilanni": 5238,
      "kalisiyɔmu": 5239,
      "mendoza": 5240,
      "yirifalenyɔrɔ": 5241,
      "alimaɲikaw": 5242,
      "jeux": 5243,
      "pankurunni": 5244,
      "kanuba": 5245,
      "vada": 5246,
      "bɔlidaw": 5247,
      "ɲumaya": 5248,
      "siyakurabɔ": 5249,
      "furuw": 5250,
      "fototali": 5251,
      "stratus": 5252,
      "masakɛmuso": 5253,
      "ghz": 5254,
      "grant": 5255,
      "andra": 5256,
      "stanford": 5257,
      "turusiw": 5258,
      "adam": 5259,
      "gwate": 5260,
      "jagoyara": 5261,
      "sarize": 5262,
      "cudde": 5263,
      "stewart": 5264,
      "stearns": 5265,
      "sɔgɔsɔgɔnijɛ": 5266,
      "ɲɔgɔdan": 5267,
      "sukuw": 5268,
      "mansinw": 5269,
      "byzantine": 5270,
      "australopi": 5271,
      "yɛlɛna": 5272,
      "martel": 5273,
      "ciraptor": 5274,
      "olɛnpiki": 5275,
      "delwal": 5276,
      "nɔkɔsaman": 5277,
      "urique": 5278,
      "fɛgɛya": 5279,
      "garolen": 5280,
      "melamine": 5281,
      "sereya": 5282,
      "ssar": 5283,
      "videos": 5284,
      "prague": 5285,
      "tɛgɛrɛni": 5286,
      "republican": 5287,
      "dɔron": 5288,
      "trump": 5289,
      "nataaw": 5290,
      "cɛluda": 5291,
      "fiyɛnkoloba": 5292,
      "herostratus": 5293,
      "kiranpɔn": 5294,
      "democra": 5295,
      "layton": 5296,
      "velociraptor": 5297,
      "romains": 5298,
      "colbert": 5299,
      "ephesus": 5300,
      "kɛnɛna": 5301,
      "boats": 5302,
      "karilidaw": 5303,
      "katolikiw": 5304,
      "emira": 5305,
      "dinozɔr": 5306,
      "square": 5307,
      "zhabdrung": 5308,
      "korɔsikɔpu": 5309,
      "shyam": 5310,
      "pryce": 5311,
      "siganamɔgɔ": 5312,
      "broadsi": 5313,
      "asariyaniw": 5314,
      "cyanurique": 5315,
      "mapuche": 5316,
      "nitorozɛni": 5317,
      "ɛnfirauruzi": 5318,
      "cambridge": 5319,
      "dewelope": 5320,
      "devonport": 5321,
      "toginet": 5322,
      "yeelenbaraninɛgɛ": 5323,
      "cuddeback": 5324,
      "australopithecus": 5325,
      "martelly": 5326,
      "ɛnfirauruzijaw": 5327,
      "60w": 5328,
      "70w": 5329,
      "aug": 5330,
      "ade": 5331,
      "ath": 5332,
      "akari": 5333,
      "athamaki": 5334,
      "ahũri": 5335,
      "atandatũ": 5336,
      "adirɛ": 5337,
      "bho": 5338,
      "cinĩ": 5339,
      "cɔrɔni": 5340,
      "fti": 5341,
      "feno": 5342,
      "gwĩ": 5343,
      "hk": 5344,
      "hsie": 5345,
      "huro": 5346,
      "igu": 5347,
      "imwe": 5348,
      "itari": 5349,
      "ihũ": 5350,
      "ihonia": 5351,
      "ibuku": 5352,
      "iphone": 5353,
      "kwaga": 5354,
      "ohio": 5355,
      "pbs": 5356,
      "tren": 5357,
      "udũire": 5358,
      "ĩki": 5359,
      "ĩtu": 5360,
      "ĩtini": 5361,
      "ũra": 5362,
      "ũga": 5363,
      "ũki": 5364,
      "ũrĩ": 5365,
      "ũhũthĩ": 5366,
      "ũhoro": 5367,
      "ũthuthu": 5368,
      "‘’": 5369,
      "anĩ": 5370,
      "anini": 5371,
      "anyitĩ": 5372,
      "kasama": 5373,
      "kagwo": 5374,
      "kawai": 5375,
      "latɛmɛli": 5376,
      "lamerikɛn": 5377,
      "mamwe": 5378,
      "magũrũ": 5379,
      "maita": 5380,
      "kɛnino": 5381,
      "bacaama": 5382,
      "wabi": 5383,
      "wake": 5384,
      "minli": 5385,
      "minne": 5386,
      "kofɔni": 5387,
      "kolɔɔn": 5388,
      "sifɛ": 5389,
      "sipe": 5390,
      "sitiki": 5391,
      "siwisi": 5392,
      "beere": 5393,
      "anio": 5394,
      "tagan": 5395,
      "taleno": 5396,
      "dain": 5397,
      "manfɛnw": 5398,
      "kuo": 5399,
      "kɔnlen": 5400,
      "kɔnlɔn": 5401,
      "bifalo": 5402,
      "fia": 5403,
      "firinkan": 5404,
      "gatandatũ": 5405,
      "kitɛri": 5406,
      "kiugo": 5407,
      "kimwana": 5408,
      "dilila": 5409,
      "ɲɛmaw": 5410,
      "ɲɛɲininli": 5411,
      "sankura": 5412,
      "sankisɛw": 5413,
      "mɛyili": 5414,
      "fɔbaaw": 5415,
      "cayala": 5416,
      "caari": 5417,
      "boɲɔgɔn": 5418,
      "yɔrɔmara": 5419,
      "yɔrɔbaw": 5420,
      "yɔrɔkura": 5421,
      "bɔyi": 5422,
      "tesi": 5423,
      "hakan": 5424,
      "hamp": 5425,
      "hakuhĩ": 5426,
      "mirongo": 5427,
      "dɔndala": 5428,
      "rehe": 5429,
      "luwe": 5430,
      "sɔrɔkadi": 5431,
      "fɛnkɔrɔ": 5432,
      "waatikelen": 5433,
      "cikanw": 5434,
      "cɛɲin": 5435,
      "thiri": 5436,
      "thene": 5437,
      "sudɔnli": 5438,
      "supɔmi": 5439,
      "jamanala": 5440,
      "rĩra": 5441,
      "rĩga": 5442,
      "rĩirie": 5443,
      "rĩera": 5444,
      "kuluduguma": 5445,
      "kuludigɛnw": 5446,
      "kɔnɔnmura": 5447,
      "tɔnkɔnɔn": 5448,
      "nera": 5449,
      "nero": 5450,
      "yɛrɛkofɔ": 5451,
      "nɛtugu": 5452,
      "wetere": 5453,
      "maraɲɛmɔgɔw": 5454,
      "kɛlɛkuluw": 5455,
      "yɛlɛmabolo": 5456,
      "yɛlɛmakura": 5457,
      "zido": 5458,
      "bolira": 5459,
      "benkɛla": 5460,
      "piza": 5461,
      "pisiw": 5462,
      "pitt": 5463,
      "nĩi": 5464,
      "nĩkũrĩ": 5465,
      "tileni": 5466,
      "kumafɔlila": 5467,
      "dilaninw": 5468,
      "kĩna": 5469,
      "kĩrĩa": 5470,
      "kĩmwe": 5471,
      "geti": 5472,
      "geos": 5473,
      "gĩothe": 5474,
      "gĩkĩro": 5475,
      "gĩthomo": 5476,
      "minasitiki": 5477,
      "panze": 5478,
      "tinite": 5479,
      "tuguma": 5480,
      "tuguɲɔgɔnya": 5481,
      "mũga": 5482,
      "mũthi": 5483,
      "mũciĩ": 5484,
      "mũtuthũko": 5485,
      "mũhuro": 5486,
      "chandra": 5487,
      "kũingĩ": 5488,
      "kũrehe": 5489,
      "sɛbɛe": 5490,
      "sɛbɛniw": 5491,
      "sɔnmu": 5492,
      "wizaw": 5493,
      "witesi": 5494,
      "ɲininlen": 5495,
      "damadɔni": 5496,
      "kaladen": 5497,
      "kalaal": 5498,
      "muganw": 5499,
      "muganan": 5500,
      "gulɔn": 5501,
      "guar": 5502,
      "woyasiw": 5503,
      "tɔgɔsɛbɛni": 5504,
      "diɲɛforo": 5505,
      "rũgongo": 5506,
      "rũcinĩ": 5507,
      "mĩtĩ": 5508,
      "mĩtio": 5509,
      "mĩthan": 5510,
      "mĩrũrũn": 5511,
      "mĩgwate": 5512,
      "filime": 5513,
      "filikurun": 5514,
      "gũi": 5515,
      "gũkin": 5516,
      "gũcen": 5517,
      "gũthuthu": 5518,
      "ɲikin": 5519,
      "sariyatan": 5520,
      "cerio": 5521,
      "erero": 5522,
      "ɔridenni": 5523,
      "dugukolokoɲɛɲini": 5524,
      "hiti": 5525,
      "fiyɛnkolɔɔn": 5526,
      "thio": 5527,
      "tamasiraw": 5528,
      "nanfɛnw": 5529,
      "yanfanw": 5530,
      "dɔgɔyala": 5531,
      "nɔnna": 5532,
      "bisabaw": 5533,
      "ɲɛsinni": 5534,
      "ɲɛsinleno": 5535,
      "sonsan": 5536,
      "sumalila": 5537,
      "halikilina": 5538,
      "balolocogo": 5539,
      "cɛnna": 5540,
      "cɛnini": 5541,
      "cɛnliye": 5542,
      "kunkowulu": 5543,
      "jateminɛba": 5544,
      "makora": 5545,
      "sinsindugu": 5546,
      "sinsinbeere": 5547,
      "thĩro": 5548,
      "konti": 5549,
      "kontira": 5550,
      "siyɔnnera": 5551,
      "kɛrɛnkɛrɛniw": 5552,
      "hakilito": 5553,
      "hakilijigi": 5554,
      "furaburuw": 5555,
      "tarakogo": 5556,
      "yeeɲɛna": 5557,
      "woyasila": 5558,
      "kamakunw": 5559,
      "ciothe": 5560,
      "tĩkĩ": 5561,
      "kunbala": 5562,
      "shland": 5563,
      "lasegi": 5564,
      "ckland": 5565,
      "batɔnba": 5566,
      "pɔnw": 5567,
      "kɔkɔjikuru": 5568,
      "woyazikɛla": 5569,
      "ũnyi": 5570,
      "ũngĩ": 5571,
      "ũngũ": 5572,
      "ũngĩrĩ": 5573,
      "baliyaw": 5574,
      "hanĩte": 5575,
      "wĩra": 5576,
      "finifin": 5577,
      "kɛrɛnkɛrɛnlenw": 5578,
      "taaramu": 5579,
      "yiriwala": 5580,
      "aleman": 5581,
      "ɲɛɲinikɛlaw": 5582,
      "dinɔs": 5583,
      "berezili": 5584,
      "ɲumaba": 5585,
      "hĩrĩga": 5586,
      "ingĩran": 5587,
      "polisiyɔn": 5588,
      "lyon": 5589,
      "canyon": 5590,
      "maarayɔrɔla": 5591,
      "bũko": 5592,
      "tanisegin": 5593,
      "aukland": 5594,
      "auckland": 5595,
      "onekaga": 5596,
      "siyalize": 5597,
      "fɔlɔfɔlɔw": 5598,
      "fɔlɔfɔlɔla": 5599,
      "tulɔnkɛyɔrɔ": 5600,
      "tulɔnbaaraw": 5601,
      "furudenw": 5602,
      "faganmarakɛlaw": 5603,
      "hũthũ": 5604,
      "kilomɛtirikare": 5605,
      "wilili": 5606,
      "fototama": 5607,
      "dagabana": 5608,
      "dagaleno": 5609,
      "dilanikɛyɔrɔ": 5610,
      "teleso": 5611,
      "ario": 5612,
      "tajibara": 5613,
      "laskhar": 5614,
      "bresil": 5615,
      "atĩa": 5616,
      "pɛrɛnta": 5617,
      "mbĩrĩ": 5618,
      "kilomɛtɛrɛ_kare": 5619,
      "newt": 5620,
      "turusi": 5621,
      "irathĩro": 5622,
      "tirɛnw": 5623,
      "tirɛnboli": 5624,
      "kiredi": 5625,
      "girimanw": 5626,
      "kofɔla": 5627,
      "jɛnsɛnnenw": 5628,
      "kungotɔnkɔnɔn": 5629,
      "wendo": 5630,
      "kɔgɔdugu": 5631,
      "schev": 5632,
      "tolonkɛnɛ": 5633,
      "tolonkuncɛ": 5634,
      "telefɔnila": 5635,
      "dayɛlɛw": 5636,
      "jɛgɛfara": 5637,
      "ɲɔgɔma": 5638,
      "oridinatɛri": 5639,
      "wulukulu": 5640,
      "samarabaw": 5641,
      "wasadenbulɔn": 5642,
      "sanbɛlɛbolifɛn": 5643,
      "farikoloɲɛnɛjɛlaw": 5644,
      "suruman": 5645,
      "thiaga": 5646,
      "ciĩban": 5647,
      "jalakiliw": 5648,
      "marshland": 5649,
      "ɲetaa": 5650,
      "durɔgu": 5651,
      "mɔbilila": 5652,
      "nĩmare": 5653,
      "nĩmaikaraga": 5654,
      "siiw": 5655,
      "siginidenw": 5656,
      "banabaatɔw": 5657,
      "dɔngɔndɔ": 5658,
      "irankaw": 5659,
      "tannifila": 5660,
      "gosling": 5661,
      "farawuna": 5662,
      "koretwo": 5663,
      "atahi": 5664,
      "ataino": 5665,
      "jamakulukura": 5666,
      "nungo": 5667,
      "dinosa": 5668,
      "itherero": 5669,
      "kuhĩrĩirie": 5670,
      "rũrũku": 5671,
      "ɲagamuniw": 5672,
      "isilandi": 5673,
      "lamɔra": 5674,
      "basikili": 5675,
      "fɛgɛman": 5676,
      "encephali": 5677,
      "filipino": 5678,
      "jɛnkɛnna": 5679,
      "kũmenya": 5680,
      "itũrainĩ": 5681,
      "gwetha": 5682,
      "sɔniw": 5683,
      "dunajiginyɔrɔ": 5684,
      "1970w": 5685,
      "bakanmisɛn": 5686,
      "backcountry": 5687,
      "kilew": 5688,
      "kululayɛlɛ": 5689,
      "satelitiman": 5690,
      "maudũ": 5691,
      "furɔntiyɛriw": 5692,
      "tuthũka": 5693,
      "mũribũko": 5694,
      "nyũmũ": 5695,
      "mahota": 5696,
      "nĩũkoragwo": 5697,
      "kũigua": 5698,
      "tũmire": 5699,
      "hanĩkĩte": 5700,
      "15na": 5701,
      "zenerali": 5702,
      "yeelendiso": 5703,
      "civili": 5704,
      "mounta": 5705,
      "mathiĩ": 5706,
      "whitehall": 5707,
      "athii": 5708,
      "ũmenyo": 5709,
      "mĩako": 5710,
      "hinduyisimi": 5711,
      "hũrire": 5712,
      "kũhũthĩra": 5713,
      "girɛsi": 5714,
      "fitinini": 5715,
      "ɛgɛkuruni": 5716,
      "mbarathi": 5717,
      "reading": 5718,
      "gordon": 5719,
      "aranze": 5720,
      "goniyahakɛ": 5721,
      "supper": 5722,
      "demisiyɔnnera": 5723,
      "jibɔnyɔrɔ": 5724,
      "kabuni": 5725,
      "ihida": 5726,
      "serengeti": 5727,
      "labarali": 5728,
      "neturɔn": 5729,
      "triceratopes": 5730,
      "overscan": 5731,
      "alakamabaarakɛli": 5732,
      "waleɲumadɔnjɔnjɔn": 5733,
      "igot": 5734,
      "bɛjɛnjamana": 5735,
      "waatcamana": 5736,
      "damagasiw": 5737,
      "tũmĩte": 5738,
      "tanyihĩire": 5739,
      "nisondiyala": 5740,
      "khufu": 5741,
      "hadamadenyataabolo": 5742,
      "summer": 5743,
      "jourdain": 5744,
      "ekipeman": 5745,
      "purusan": 5746,
      "masuruɲa": 5747,
      "kruschev": 5748,
      "kɔɔfɛ": 5749,
      "utah": 5750,
      "wɔgɔbɛra": 5751,
      "smith": 5752,
      "beauty": 5753,
      "a1gp": 5754,
      "dugumanɛgɛkuruni": 5755,
      "californie": 5756,
      "kɔsegili": 5757,
      "jiginiw": 5758,
      "palɛstini": 5759,
      "furakɛlikɛlalaw": 5760,
      "monasitɛriw": 5761,
      "usoc": 5762,
      "ragirwo": 5763,
      "bahjans": 5764,
      "samasamani": 5765,
      "ɲɛɲili": 5766,
      "broadsides": 5767,
      "augire": 5768,
      "akaribe": 5769,
      "bhog": 5770,
      "hsieh": 5771,
      "ũgarũrũku": 5772,
      "ũkiuma": 5773,
      "ũthuthuria": 5774,
      "kawaida": 5775,
      "wabici": 5776,
      "sipesiyalize": 5777,
      "sankuraŋanuya": 5778,
      "thenema": 5779,
      "supɔmibileman": 5780,
      "kɔnɔnmurabaana": 5781,
      "wetereri": 5782,
      "pittman": 5783,
      "geospiza": 5784,
      "diɲɛforobatɔnba": 5785,
      "mĩthanga": 5786,
      "mĩrũrũngano": 5787,
      "gũcenjia": 5788,
      "dugukolokoɲɛɲinikɛla": 5789,
      "dinɔsɔridenni": 5790,
      "encephalitis": 5791,
      "aingĩ": 5792,
      "edin": 5793,
      "fron": 5794,
      "ici": 5795,
      "mbaara": 5796,
      "oha": 5797,
      "ory": 5798,
      "rque": 5799,
      "umi": 5800,
      "ĩti": 5801,
      "ĩtano": 5802,
      "ŋi": 5803,
      "ŋuman": 5804,
      "ɛsiki": 5805,
      "angĩ": 5806,
      "masiyɔn": 5807,
      "matɔrɔ": 5808,
      "maingĩ": 5809,
      "lipp": 5810,
      "nimeriki": 5811,
      "kɛcogoyala": 5812,
      "balini": 5813,
      "tizimu": 5814,
      "animasiyɔn": 5815,
      "tarĩ": 5816,
      "lolow": 5817,
      "kɔnlenw": 5818,
      "seniw": 5819,
      "jabaranin": 5820,
      "dɔli": 5821,
      "dɔlen": 5822,
      "falls": 5823,
      "nininw": 5824,
      "ɲɛɲinin": 5825,
      "solisiyɔn": 5826,
      "gian": 5827,
      "hamil": 5828,
      "cokire": 5829,
      "depan": 5830,
      "dumina": 5831,
      "cogodɔla": 5832,
      "dengɛrɛfɛ": 5833,
      "rĩrĩ": 5834,
      "rĩngĩ": 5835,
      "sabasaba": 5836,
      "sintra": 5837,
      "yɛrɛtɔgɔla": 5838,
      "sigileno": 5839,
      "ɲɛnini": 5840,
      "nĩũndũ": 5841,
      "unuw": 5842,
      "sɛbɛna": 5843,
      "sɛbɛnleno": 5844,
      "gĩtũmi": 5845,
      "tuguleno": 5846,
      "mũth": 5847,
      "farili": 5848,
      "farifoni": 5849,
      "ɲinijɛkulu": 5850,
      "mĩnini": 5851,
      "mĩtaratara": 5852,
      "mĩario": 5853,
      "gũcoka": 5854,
      "ɲɛnɛbɔli": 5855,
      "nafanw": 5856,
      "thagia": 5857,
      "mɔbiliba": 5858,
      "mɔbilibolila": 5859,
      "kunafonigafe": 5860,
      "teliye": 5861,
      "heana": 5862,
      "konsɛ": 5863,
      "ũndu": 5864,
      "dugumasɛnɛ": 5865,
      "nɛnini": 5866,
      "faratilenw": 5867,
      "dɔkɔya": 5868,
      "bangela": 5869,
      "ɲɔntili": 5870,
      "famuyalila": 5871,
      "wɛɛrɛw": 5872,
      "doloɲɛ": 5873,
      "chase": 5874,
      "mbatũ": 5875,
      "kĩrĩria": 5876,
      "adayɛni": 5877,
      "monturu": 5878,
      "sanbɛlɛni": 5879,
      "jalakitigiw": 5880,
      "jakumaw": 5881,
      "romantizimu": 5882,
      "zuwekalo": 5883,
      "sɛriwisiw": 5884,
      "thondeke": 5885,
      "medical": 5886,
      "dɔngɔndɔn": 5887,
      "ugaga": 5888,
      "jamanakuntigikalata": 5889,
      "darwin": 5890,
      "shey": 5891,
      "purotey": 5892,
      "atomi": 5893,
      "atomu": 5894,
      "pasipɔriw": 5895,
      "1960w": 5896,
      "kumalasera": 5897,
      "saito": 5898,
      "olympique": 5899,
      "ɲakami": 5900,
      "jateminɛnna": 5901,
      "biritaniki": 5902,
      "kũhũthĩrwo": 5903,
      "sariyalaɲini": 5904,
      "mbũtũ": 5905,
      "bɔrɔtɔli": 5906,
      "koloniza": 5907,
      "gatatũ": 5908,
      "hershey": 5909,
      "pilanɛtiw": 5910,
      "finɛtiri": 5911,
      "medecin": 5912,
      "argentine": 5913,
      "mizew": 5914,
      "guwansan": 5915,
      "meciria": 5916,
      "mwakainĩ": 5917,
      "niyanyi": 5918,
      "mankuntu": 5919,
      "caspian": 5920,
      "trenton": 5921,
      "mountains": 5922,
      "edinburgh": 5923,
      "ĩtiganĩte": 5924,
      "hamilton": 5925,
      "arĩ": 5926,
      "athomi": 5927,
      "kv": 5928,
      "lred": 5929,
      "ngari": 5930,
      "opera": 5931,
      "oyothe": 5932,
      "ĩko": 5933,
      "ĩthonde": 5934,
      "ũgi": 5935,
      "ũthi": 5936,
      "ũkri": 5937,
      "ũkoragwo": 5938,
      "kagĩ": 5939,
      "kapte": 5940,
      "lawalema": 5941,
      "ɔrdinatɛri": 5942,
      "tikɛla": 5943,
      "koinĩ": 5944,
      "siɲi": 5945,
      "beko": 5946,
      "sati": 5947,
      "saaya": 5948,
      "dabɔla": 5949,
      "jalabɛn": 5950,
      "kilasi": 5951,
      "kunkɔ": 5952,
      "goria": 5953,
      "tɛki": 5954,
      "jisiraw": 5955,
      "gɛrizi": 5956,
      "onere": 5957,
      "dɔnsɔ": 5958,
      "inaf": 5959,
      "fanbɛɛ": 5960,
      "cion": 5961,
      "cikiny": 5962,
      "denbro": 5963,
      "cɛkaɲi": 5964,
      "suɲa": 5965,
      "ɲɔgɔnaw": 5966,
      "nɛfɔ": 5967,
      "kalanbɔnda": 5968,
      "bilaleno": 5969,
      "senkura": 5970,
      "danra": 5971,
      "pamela": 5972,
      "ziwu": 5973,
      "nusɔn": 5974,
      "benkanni": 5975,
      "nĩye": 5976,
      "wɔrɔdugu": 5977,
      "kĩhu": 5978,
      "gĩkĩ": 5979,
      "panpara": 5980,
      "baliyala": 5981,
      "kũndũ": 5982,
      "wifu": 5983,
      "tɔgɔsɛbɛnli": 5984,
      "mĩthemba": 5985,
      "gũcera": 5986,
      "dɔnibaw": 5987,
      "tiriliyɔn": 5988,
      "thaa": 5989,
      "labanan": 5990,
      "cɛnu": 5991,
      "nɔbilaw": 5992,
      "karire": 5993,
      "tongoria": 5994,
      "olaf": 5995,
      "theory": 5996,
      "kilogira": 5997,
      "tĩri": 5998,
      "jirifara": 5999,
      "itilizela": 6000,
      "kɔkɔjidaw": 6001,
      "woyaziw": 6002,
      "onacio": 6003,
      "kɛrɛnkɛrɛnyala": 6004,
      "tilankɛ": 6005,
      "tikɛlen": 6006,
      "maatha": 6007,
      "onete": 6008,
      "dilanikɛ": 6009,
      "banakisɛfagana": 6010,
      "kɛlɛkɛbolo": 6011,
      "delika": 6012,
      "talaɲɛ": 6013,
      "sanfɛlara": 6014,
      "tikew": 6015,
      "ɲɔkɔnna": 6016,
      "worth": 6017,
      "fergu": 6018,
      "mugujugupɛrɛnta": 6019,
      "icũainĩ": 6020,
      "addenbro": 6021,
      "mirilikɛlaw": 6022,
      "gũtiũĩkaine": 6023,
      "bakurubafɔlila": 6024,
      "gɔfɛrɛnemanw": 6025,
      "hanĩkire": 6026,
      "zɛnɛ": 6027,
      "olive": 6028,
      "turkish": 6029,
      "mĩikarire": 6030,
      "danbɔleno": 6031,
      "jufakɔnɔ": 6032,
      "stiano": 6033,
      "angel": 6034,
      "bakɔlɔni": 6035,
      "azansi": 6036,
      "sofiɲɛbiladaw": 6037,
      "butuki": 6038,
      "dɛmisɛnifitiniw": 6039,
      "makonainie": 6040,
      "hĩndĩ": 6041,
      "ethelred": 6042,
      "dunuyalamini": 6043,
      "rabatara": 6044,
      "nisongoyala": 6045,
      "muhammad": 6046,
      "nimerikiw": 6047,
      "kv62": 6048,
      "ĩthondeko": 6049,
      "ũgitĩri": 6050,
      "ũthii": 6051,
      "ũkristiano": 6052,
      "kaptelanw": 6053,
      "gɛrizigɛ": 6054,
      "cikinyĩ": 6055,
      "ziwufuw": 6056,
      "benkannikɛlɛ": 6057,
      "kĩhumo": 6058,
      "kilogiramu": 6059,
      "addenbrooke": 6060,
      "bron": 6061,
      "igana": 6062,
      "macio": 6063,
      "nacio": 6064,
      "six": 6065,
      "riu": 6066,
      "daleno": 6067,
      "mangĩ": 6068,
      "sankaso": 6069,
      "soso": 6070,
      "sɔrɔlila": 6071,
      "jɛni": 6072,
      "denfitini": 6073,
      "rĩkanaga": 6074,
      "jɔlila": 6075,
      "tileyeelen": 6076,
      "yaliba": 6077,
      "kunkolola": 6078,
      "apia": 6079,
      "kiretiyɛnya": 6080,
      "tabulo": 6081,
      "jerry": 6082,
      "atɔmu": 6083,
      "vinson": 6084,
      "ells": 6085,
      "ochy": 6086,
      "kamwe": 6087,
      "ladus": 6088,
      "jah": 6089,
      "gatarũ": 6090,
      "kɔbolofaraw": 6091,
      "lujah": 6092,
      "fɛnkurana": 6093,
      "foko": 6094,
      "ciri": 6095,
      "dore": 6096,
      "tɔti": 6097,
      "noosa": 6098,
      "mũgwan": 6099,
      "farikolodenfitini": 6100,
      "tũtarũ": 6101,
      "gɛrɛfɛfɛnw": 6102,
      "hebron": 6103,
      "mariana": 6104,
      "tinople": 6105,
      "pɔritigɛ": 6106,
      "finipase": 6107,
      "pankurunba": 6108,
      "wilibali": 6109,
      "brezil": 6110,
      "stantinople": 6111,
      "badabada": 6112,
      "tolonja": 6113,
      "constantinople": 6114,
      "fallujah": 6115,
      "jisanfɛkulun": 6116,
      "enceladus": 6117,
      "hakilisigibaliya": 6118,
      "maroochy": 6119,
      "atilantiki": 6120,
      "girɛkiw": 6121,
      "jenilen": 6122,
      "bɔgɔjenilen": 6123,
      "mbers": 6124,
      "perise": 6125,
      "sugaya": 6126,
      "mosasa": 6127,
      "edison": 6128,
      "operasiyɔn": 6129,
      "sankasojanw": 6130,
      "ellsworth": 6131,
      "mũgwanja": 6132,
      "maroochydore": 6133,
      "denmi": 6134,
      "há": 6135,
      "rɔn": 6136,
      "mì": 6137,
      "banabaga": 6138,
      "mɔ̀gɔ": 6139,
      "selen": 6140,
      "siga": 6141,
      "limani": 6142,
      "kù": 6143,
      "jù": 6144,
      "sirilen": 6145,
      "bakari": 6146,
      "kò": 6147,
      "táa": 6148,
      "nke": 6149,
      "yɔrɔn": 6150,
      "bora": 6151,
      "subaga": 6152,
      "sɛbɛnnen": 6153,
      "faw": 6154,
      "mɛlɛ": 6155,
      "dú": 6156,
      "muni": 6157,
      "ɔwɔ": 6158,
      "baatɔ": 6159,
      "?»": 6160,
      "yiriwali": 6161,
      "faan": 6162,
      "yɔrɔnin": 6163,
      "dabila": 6164,
      "were": 6165,
      "jata": 6166,
      "dunun": 6167,
      "tɛnɛn": 6168,
      "gele": 6169,
      "fú": 6170,
      "nugu": 6171,
      "dusu": 6172,
      "salen": 6173,
      "tù": 6174,
      "donkili": 6175,
      "konate": 6176,
      "ab": 6177,
      "basa": 6178,
      "lati": 6179,
      "sifa": 6180,
      "cidenw": 6181,
      "furakɛ": 6182,
      "kanna": 6183,
      "filen": 6184,
      "ziyɛn": 6185,
      "cɛnin": 6186,
      "sò": 6187,
      "kamalen": 6188,
      "bugɔ": 6189,
      "ɲɛnabɔ": 6190,
      "sèn": 6191,
      "kulusi": 6192,
      "waraba": 6193,
      "fon": 6194,
      "nalen": 6195,
      "jeli": 6196,
      "foroko": 6197,
      "bú": 6198,
      "dankan": 6199,
      "dùgu": 6200,
      "shu": 6201,
      "mùso": 6202,
      "fasi": 6203,
      "lajɛlen": 6204,
      "npo": 6205,
      "bamuso": 6206,
      "piyɛri": 6207,
      "hakɛw": 6208,
      "jiginna": 6209,
      "́li": 6210,
      "sebaga": 6211,
      "banbali": 6212,
      "weele": 6213,
      "saraka": 6214,
      "kɔ́rɔ": 6215,
      "!»": 6216,
      "ɲɛgɛn": 6217,
      "mumɛ": 6218,
      "bɛ́ɛ": 6219,
      "fitinin": 6220,
      "dawula": 6221,
      "cɛsiri": 6222,
      "ɲɛnama": 6223,
      "wolola": 6224,
      "dimin": 6225,
      "misiri": 6226,
      "sɔ̀": 6227,
      "nɔɔrɔ": 6228,
      "waso": 6229,
      "kolen": 6230,
      "sinna": 6231,
      "́ri": 6232,
      "minkɛ": 6233,
      "sán": 6234,
      "mansa": 6235,
      "mín": 6236,
      "muɲu": 6237,
      "ɲimi": 6238,
      "silamakan": 6239,
      "geren": 6240,
      "lafili": 6241,
      "waleyali": 6242,
      "bamanankan": 6243,
      "dug": 6244,
      "ero": 6245,
      "dɔlɔ": 6246,
      "tiɲɛni": 6247,
      "bagi": 6248,
      "dugujɛ": 6249,
      "gn": 6250,
      "kosebe": 6251,
      "donw": 6252,
      "baasi": 6253,
      "kè": 6254,
      "yé": 6255,
      "tí": 6256,
      "see": 6257,
      "ser": 6258,
      "nkalon": 6259,
      "rɔ́": 6260,
      "jani": 6261,
      "basigi": 6262,
      "jere": 6263,
      "jirali": 6264,
      "alabatoso": 6265,
      ";/": 6266,
      "minu": 6267,
      "jolen": 6268,
      "là": 6269,
      "lajigin": 6270,
      "matara": 6271,
      "filila": 6272,
      "sɛ̀": 6273,
      "delili": 6274,
      "hun": 6275,
      "misiw": 6276,
      "sebagaya": 6277,
      "ŋɔ": 6278,
      "sidi": 6279,
      "sala": 6280,
      "ble": 6281,
      "dị": 6282,
      "ihe": 6283,
      "ntalen": 6284,
      "yɛgɛ": 6285,
      "mii": 6286,
      "pul": 6287,
      "tilennen": 6288,
      "lanan": 6289,
      "kiritigɛ": 6290,
      "ati": 6291,
      "nikɛla": 6292,
      "far": 6293,
      "benna": 6294,
      "amiina": 6295,
      "ɲɔ́": 6296,
      "tinɛ": 6297,
      "tata": 6298,
      "mori": 6299,
      "mafɛn": 6300,
      "sàn": 6301,
      "kunben": 6302,
      "dugumogo": 6303,
      "tɔnɔ": 6304,
      "ngala": 6305,
      "nìn": 6306,
      "lenba": 6307,
      "kɔrɔbɔ": 6308,
      "fagali": 6309,
      "kɛnyɛ": 6310,
      "ngo": 6311,
      "stu": 6312,
      "hɛɛrɛ": 6313,
      "mé": 6314,
      "ɛma": 6315,
      "maana": 6316,
      "dugutigi": 6317,
      "nyama": 6318,
      "εn": 6319,
      "woyo": 6320,
      "ɲà": 6321,
      "rinin": 6322,
      "sɔsɔli": 6323,
      "syɛ": 6324,
      "só": 6325,
      "tigɛlen": 6326,
      "sarati": 6327,
      "vo": 6328,
      "́len": 6329,
      "mande": 6330,
      "bira": 6331,
      "dennin": 6332,
      "sigikan": 6333,
      "sonyali": 6334,
      "sabula": 6335,
      "seegin": 6336,
      "!\"": 6337,
      "bù": 6338,
      "zɛri": 6339,
      "terikɛ": 6340,
      "ɔsi": 6341,
      "lahi": 6342,
      "maru": 6343,
      "balen": 6344,
      "nalon": 6345,
      "nataw": 6346,
      "sali": 6347,
      "gasi": 6348,
      "kiliw": 6349,
      "ker": 6350,
      "bɛnnen": 6351,
      "jɔnni": 6352,
      "binni": 6353,
      "lakika": 6354,
      "minun": 6355,
      "sanba": 6356,
      "delila": 6357,
      "warijɛ": 6358,
      "dorokolen": 6359,
      "ladɔnniya": 6360,
      "ang": 6361,
      "batigi": 6362,
      "sebaa": 6363,
      "mɔgɔba": 6364,
      "tura": 6365,
      "tɔ́": 6366,
      "wolow": 6367,
      "sìgi": 6368,
      "sonsannin": 6369,
      "bɔr": 6370,
      "mɔni": 6371,
      "koso": 6372,
      "ɔgan": 6373,
      "kuman": 6374,
      "fitiri": 6375,
      "sɛbɛnnikɛlaw": 6376,
      "bìla": 6377,
      "fò": 6378,
      "tɔnden": 6379,
      "kumaden": 6380,
      "por": 6381,
      "dunni": 6382,
      "kofɔlen": 6383,
      "denmisɛnw": 6384,
      "baloko": 6385,
      "ɲagami": 6386,
      "studio": 6387,
      "liba": 6388,
      "kɛlenw": 6389,
      "bone": 6390,
      "dugubaw": 6391,
      "kɛlɛcɛ": 6392,
      "surɔ": 6393,
      "anti": 6394,
      "fɛla": 6395,
      "ɲɛni": 6396,
      "ɲɛkɔrɔ": 6397,
      "dulo": 6398,
      "kɛlɛdenw": 6399,
      "yooro": 6400,
      "woroduguyanfan": 6401,
      "atlantik": 6402,
      "ag": 6403,
      "kaman": 6404,
      "zifuw": 6405,
      "falenfalen": 6406,
      "tlebi": 6407,
      "matarafa": 6408,
      "hụ": 6409,
      "ladonni": 6410,
      "daji": 6411,
      "wusu": 6412,
      "jɔni": 6413,
      "jigiya": 6414,
      "wɔ́": 6415,
      "dra": 6416,
      "fiyen": 6417,
      "ɲɛji": 6418,
      "sanfe": 6419,
      "bɛnba": 6420,
      "ɲinɛn": 6421,
      "bɔnsɔn": 6422,
      "dɛmɛbaga": 6423,
      "mɔri": 6424,
      "lah": 6425,
      "kitabu": 6426,
      "suu": 6427,
      "masaw": 6428,
      "diyaw": 6429,
      "kola": 6430,
      "kunsigi": 6431,
      "sɛ́": 6432,
      "fɔta": 6433,
      "hakilin": 6434,
      "woloma": 6435,
      "sɛnɛkɛlaw": 6436,
      "kungokɔnɔ": 6437,
      "tìgɛ": 6438,
      "yɛ̀rɛ": 6439,
      "nyinin": 6440,
      "npogo": 6441,
      "sugo": 6442,
      "baan": 6443,
      "bán": 6444,
      "kanto": 6445,
      "kundi": 6446,
      "bolen": 6447,
      "kɛlɛden": 6448,
      "wulilen": 6449,
      "eh": 6450,
      "mafɛnw": 6451,
      "libe": 6452,
      "ɲɛsigi": 6453,
      "cogodi": 6454,
      "jɔ̀": 6455,
      "....": 6456,
      "baabu": 6457,
      "ronto": 6458,
      "kɛlɛbolow": 6459,
      "girinya": 6460,
      "kale": 6461,
      "lafasa": 6462,
      "fɛlɛ": 6463,
      "bɛti": 6464,
      "dɔnbaliya": 6465,
      "folen": 6466,
      "numu": 6467,
      "welela": 6468,
      "ville": 6469,
      "batoli": 6470,
      "jɛlenya": 6471,
      "kɔrɔɲɔgɔnmaya": 6472,
      "phi": 6473,
      "kaya": 6474,
      "kafi": 6475,
      "lafa": 6476,
      "majamu": 6477,
      "dàn": 6478,
      "sotigi": 6479,
      "halaki": 6480,
      "dugudenw": 6481,
      "suli": 6482,
      "taayɔrɔ": 6483,
      "dɛ́": 6484,
      "kɛnɛw": 6485,
      "mɛnni": 6486,
      "heri": 6487,
      "tilara": 6488,
      "fifa": 6489,
      "soni": 6490,
      "pikiri": 6491,
      "mobi": 6492,
      "saraw": 6493,
      "johan": 6494,
      "bonba": 6495,
      "kabakurun": 6496,
      "báara": 6497,
      "glo": 6498,
      "og": 6499,
      "nasira": 6500,
      "kou": 6501,
      "kankari": 6502,
      "bisigi": 6503,
      "lɛti": 6504,
      "musi": 6505,
      "cɛɲi": 6506,
      "tɔɲɔgɔn": 6507,
      "sumalen": 6508,
      "kunnafonidilaw": 6509,
      "tìle": 6510,
      "ime": 6511,
      "nni": 6512,
      "rô": 6513,
      "wɛn": 6514,
      "ena": 6515,
      "dayɔrɔ": 6516,
      "taatɔ": 6517,
      "kɛnɛyako": 6518,
      "wanda": 6519,
      "sɛbɛnnikɛla": 6520,
      "am": 6521,
      "wana": 6522,
      "ŋan": 6523,
      "badenw": 6524,
      "fadenya": 6525,
      "fɔkabɛn": 6526,
      "jibi": 6527,
      "duwani": 6528,
      "banki": 6529,
      "awirili": 6530,
      "moo": 6531,
      "finw": 6532,
      "nafamaw": 6533,
      "ɲagamin": 6534,
      "musakaw": 6535,
      "mandiw": 6536,
      "diyo": 6537,
      "kunkurun": 6538,
      "kɔtɛ": 6539,
      "cikan": 6540,
      "cɛya": 6541,
      "donko": 6542,
      "yiriden": 6543,
      "sirannen": 6544,
      "ôrô": 6545,
      "ɛrɛn": 6546,
      "ɲun": 6547,
      "laji": 6548,
      "baju": 6549,
      "minanw": 6550,
      "siko": 6551,
      "kulɔ": 6552,
      "faden": 6553,
      "telin": 6554,
      "arajo": 6555,
      "kolonin": 6556,
      "nesburg": 6557,
      "furula": 6558,
      "birilen": 6559,
      "dɔnnikɛla": 6560,
      "johannesburg": 6561,
      "nyen": 6562,
      "lada": 6563,
      "lamara": 6564,
      "tay": 6565,
      "kilin": 6566,
      "bore": 6567,
      "jir": 6568,
      "dɔngɔ": 6569,
      "kelenyalen": 6570,
      "kolokolo": 6571,
      "dantigɛli": 6572,
      "boliw": 6573,
      "kumala": 6574,
      "tumamin": 6575,
      "falenna": 6576,
      "segintɔ": 6577,
      "furabulu": 6578,
      "tigilamɔgɔ": 6579,
      "nisɔngoya": 6580,
      "keneya": 6581,
      "international": 6582,
      "lahɔrɔma": 6583,
      "fyɛ": 6584,
      "im": 6585,
      "yela": 6586,
      "lor": 6587,
      "sayi": 6588,
      "manana": 6589,
      "kulɛri": 6590,
      "sula": 6591,
      "dɔwɛrɛw": 6592,
      "sigicogo": 6593,
      "yɛnw": 6594,
      "bolitɔ": 6595,
      "yanga": 6596,
      "mou": 6597,
      "zez": 6598,
      "jose": 6599,
      "sariyasun": 6600,
      "baato": 6601,
      "taamadenw": 6602,
      "hɔrɔnw": 6603,
      "tions": 6604,
      "ɲɔgɔnnaw": 6605,
      "kulekan": 6606,
      ".'": 6607,
      "abi": 6608,
      "htt": 6609,
      "jali": 6610,
      "diɲɛna": 6611,
      "fɔbaga": 6612,
      "tó": 6613,
      "tanz": 6614,
      "taamana": 6615,
      "mere": 6616,
      "mɔden": 6617,
      "zawa": 6618,
      "gundola": 6619,
      "dagayɔrɔ": 6620,
      "likɛba": 6621,
      "ninakili": 6622,
      "faantan": 6623,
      "sebaaya": 6624,
      "db": 6625,
      "em": 6626,
      "gɔrɔ": 6627,
      "kọ": 6628,
      "lɔgɔ": 6629,
      "kame": 6630,
      "sita": 6631,
      "bilan": 6632,
      "gafɛ": 6633,
      "bolima": 6634,
      "kɔnɔfɛn": 6635,
      "tolen": 6636,
      "tank": 6637,
      "kɔrɔbaya": 6638,
      "paul": 6639,
      "jɔw": 6640,
      "boliba": 6641,
      "gɛrɛsi": 6642,
      "dumunifɛn": 6643,
      "jiridenw": 6644,
      "kalansow": 6645,
      "peresi": 6646,
      "bɔɲɔgɔnko": 6647,
      "ise": 6648,
      "ça": 6649,
      "ɛri": 6650,
      "kase": 6651,
      "magɛn": 6652,
      "nili": 6653,
      "kisira": 6654,
      "kunbɛnni": 6655,
      "mɛri": 6656,
      "lanso": 6657,
      "yɛrɛn": 6658,
      "fola": 6659,
      "kuruw": 6660,
      "dɛmɛni": 6661,
      "rinna": 6662,
      "wariko": 6663,
      "jamaba": 6664,
      "misɛnya": 6665,
      "sarizi": 6666,
      "dɔnkilidalaw": 6667,
      "marifaw": 6668,
      "brazil": 6669,
      "bilasirali": 6670,
      "group": 6671,
      "show": 6672,
      "bugo": 6673,
      "dre": 6674,
      "zona": 6675,
      "lakaw": 6676,
      "kobaw": 6677,
      "fɛ́n": 6678,
      "dasi": 6679,
      "kukala": 6680,
      "sanpɛrɛn": 6681,
      "goog": 6682,
      "yɔrɔba": 6683,
      "lɛmu": 6684,
      "rou": 6685,
      "tuman": 6686,
      "sinen": 6687,
      "senkɔrɔ": 6688,
      "tilela": 6689,
      "kurulen": 6690,
      "jɛnna": 6691,
      "nɔbɔ": 6692,
      "bangekɔlɔsi": 6693,
      "dogokun": 6694,
      "dagaw": 6695,
      "wɔɔrɔnan": 6696,
      "jɛgɛw": 6697,
      "seereya": 6698,
      "http": 6699,
      "google": 6700,
      "20": 6701,
      "dwa": 6702,
      "tɔgɔn": 6703,
      "zer": 6704,
      "lataa": 6705,
      "nize": 6706,
      "kɛɲɔgɔn": 6707,
      "tique": 6708,
      "dation": 6709,
      "fadenw": 6710,
      "ɲɛminɛ": 6711,
      "gow": 6712,
      "kɔdi": 6713,
      "dɔnw": 6714,
      "torini": 6715,
      "fofo": 6716,
      "denma": 6717,
      "woso": 6718,
      "kɔrɔya": 6719,
      "pati": 6720,
      "moni": 6721,
      "kalaba": 6722,
      "sarali": 6723,
      "wulada": 6724,
      "via": 6725,
      "ɲɛnabɔla": 6726,
      "fagalen": 6727,
      "tilennenw": 6728,
      "ɲɔgɔlɔn": 6729,
      "misaliya": 6730,
      "wulikajɔ": 6731,
      "ukra": 6732,
      "europe": 6733,
      "mɛlɛkɛ": 6734,
      "nizeriya": 6735,
      "):": 6736,
      "nkɔn": 6737,
      "ot": 6738,
      "mat": 6739,
      "like": 6740,
      "baso": 6741,
      "basaw": 6742,
      "ens": 6743,
      "kos": 6744,
      "koya": 6745,
      "manga": 6746,
      "jatigiya": 6747,
      "sigibagaw": 6748,
      "ɲinw": 6749,
      "lajɛba": 6750,
      "tilefɛ": 6751,
      "ganan": 6752,
      "camanw": 6753,
      "jolo": 6754,
      "jiralen": 6755,
      "bagama": 6756,
      "nɔ́": 6757,
      "america": 6758,
      "kanubagaw": 6759,
      "nafaw": 6760,
      "tswana": 6761,
      "labaarali": 6762,
      "labilali": 6763,
      "denmisɛnniw": 6764,
      "panama": 6765,
      "ukraine": 6766,
      ");": 6767,
      "ap": 6768,
      "duga": 6769,
      "rwanda": 6770,
      "tz": 6771,
      "ɲo": 6772,
      "koɲɛnabɔla": 6773,
      "yaku": 6774,
      "taya": 6775,
      "salon": 6776,
      "daduman": 6777,
      "jaji": 6778,
      "gà": 6779,
      "sansi": 6780,
      "sange": 6781,
      "gosira": 6782,
      "mɛkalo": 6783,
      "sola": 6784,
      "gila": 6785,
      "desan": 6786,
      "bank": 6787,
      "farajɛ": 6788,
      "moko": 6789,
      "jɔnkolonin": 6790,
      "musoma": 6791,
      "sarakabɔ": 6792,
      "ces": 6793,
      "ruw": 6794,
      "sinsinni": 6795,
      "fagala": 6796,
      "munin": 6797,
      "jiribolo": 6798,
      "tilali": 6799,
      "usalɛmu": 6800,
      "kólo": 6801,
      "miirina": 6802,
      "peresidan": 6803,
      "zerusalɛmu": 6804,
      "16": 6805,
      "ege": 6806,
      "kh": 6807,
      "kre": 6808,
      "non": 6809,
      "pɛrɛ": 6810,
      "anga": 6811,
      "laminin": 6812,
      "maba": 6813,
      "magi": 6814,
      "nii": 6815,
      "ɔro": 6816,
      "nami": 6817,
      "siye": 6818,
      "sire": 6819,
      "tale": 6820,
      "kanda": 6821,
      "cayali": 6822,
      "board": 6823,
      "tɛsi": 6824,
      "kɔda": 6825,
      "tununa": 6826,
      "dudenw": 6827,
      "cike": 6828,
      "city": 6829,
      "sul": 6830,
      "dora": 6831,
      "yɛrɛye": 6832,
      "yɛrɛminɛ": 6833,
      "sigibaga": 6834,
      "jɔlenw": 6835,
      "kuraya": 6836,
      "dɔgɔtɔrɔ": 6837,
      "ɲɛnafin": 6838,
      "sababuw": 6839,
      "jiriden": 6840,
      "jɔyɔrɔba": 6841,
      "yiridenw": 6842,
      "kabilaw": 6843,
      "lasɔmi": 6844,
      "masiriw": 6845,
      "makaran": 6846,
      "murutilenw": 6847,
      "dɛnɛ": 6848,
      "lamɛnbagaw": 6849,
      "global": 6850,
      "ek": 6851,
      "kp": 6852,
      "nw": 6853,
      "ngwa": 6854,
      "obana": 6855,
      "pt": 6856,
      "ura": 6857,
      "inna": 6858,
      "lajɔli": 6859,
      "lakɔli": 6860,
      "yer": 6861,
      "raw": 6862,
      "bad": 6863,
      "rila": 6864,
      "tasa": 6865,
      "bɛtɛ": 6866,
      "manninw": 6867,
      "kuturu": 6868,
      "bilenw": 6869,
      "sance": 6870,
      "kunfɛ": 6871,
      "socia": 6872,
      "bɔda": 6873,
      "jì": 6874,
      "cor": 6875,
      "lub": 6876,
      "tola": 6877,
      "dugukɔnɔ": 6878,
      "doko": 6879,
      "minɛlen": 6880,
      "donfini": 6881,
      "kalanna": 6882,
      "tɔra": 6883,
      "ganu": 6884,
      "modɛ": 6885,
      "chou": 6886,
      "dunya": 6887,
      "cɛnw": 6888,
      "arti": 6889,
      "sɛgɛsɛgɛliw": 6890,
      "fɔlikan": 6891,
      "yiriwara": 6892,
      "kanuya": 6893,
      "datugulan": 6894,
      "fɛrɛlen": 6895,
      "kasobon": 6896,
      "dɔnkilida": 6897,
      "france": 6898,
      "terimuso": 6899,
      "lakalila": 6900,
      "jalakili": 6901,
      "coolo": 6902,
      "cli": 6903,
      "ego": 6904,
      "fene": 6905,
      "gr": 6906,
      "gur": 6907,
      "gurun": 6908,
      "izini": 6909,
      "ls": 6910,
      "nbɛ": 6911,
      "nku": 6912,
      "ote": 6913,
      "kaye": 6914,
      "mamu": 6915,
      "magɛlɛya": 6916,
      "maganna": 6917,
      "yekalo": 6918,
      "yàn": 6919,
      "loire": 6920,
      "daro": 6921,
      "dadon": 6922,
      "mantow": 6923,
      "sekow": 6924,
      "jamaw": 6925,
      "jalanw": 6926,
      "kite": 6927,
      "falan": 6928,
      "cad": 6929,
      "botswana": 6930,
      "giriya": 6931,
      "bɔta": 6932,
      "milli": 6933,
      "manakan": 6934,
      "duden": 6935,
      "denfa": 6936,
      "wow": 6937,
      "sinnen": 6938,
      "jɔsi": 6939,
      "bolibaga": 6940,
      "janba": 6941,
      "feb": 6942,
      "aliman": 6943,
      "diɲɛlatigɛ": 6944,
      "bilisi": 6945,
      "dugukolokan": 6946,
      "bagaba": 6947,
      "fangaw": 6948,
      "issance": 6949,
      "batoso": 6950,
      "peru": 6951,
      "news": 6952,
      "tiyɛnna": 6953,
      "kofɔlenw": 6954,
      "masurunna": 6955,
      "dorokoli": 6956,
      "cono": 6957,
      "zanwuyekalo": 6958,
      "rail": 6959,
      "kerecɛn": 6960,
      "yuan": 6961,
      "angeles": 6962,
      "keguya": 6963,
      "maanaw": 6964,
      "bolimafɛn": 6965,
      "\")": 6966,
      "2nan": 6967,
      "bha": 6968,
      "blu": 6969,
      "fy": 6970,
      "gɔri": 6971,
      "isin": 6972,
      "ving": 6973,
      "ɔw": 6974,
      "anne": 6975,
      "kalen": 6976,
      "karo": 6977,
      "lat": 6978,
      "lakunu": 6979,
      "mart": 6980,
      "ras": 6981,
      "rajo": 6982,
      "walen": 6983,
      "nabaa": 6984,
      "damana": 6985,
      "dasiri": 6986,
      "datugun": 6987,
      "kuw": 6988,
      "bir": 6989,
      "sekan": 6990,
      "sese": 6991,
      "lew": 6992,
      "bobara": 6993,
      "tɛbɛn": 6994,
      "kɔtɔ": 6995,
      "urce": 6996,
      "jima": 6997,
      "focogo": 6998,
      "folon": 6999,
      "denn": 7000,
      "banana": 7001,
      "sirakun": 7002,
      "tua": 7003,
      "meri": 7004,
      "eren": 7005,
      "villa": 7006,
      "ves": 7007,
      "menw": 7008,
      "woloki": 7009,
      "wolowolo": 7010,
      "mankanba": 7011,
      "lakikaw": 7012,
      "genda": 7013,
      "diinɛko": 7014,
      "pɛrɛnkan": 7015,
      "bolodalen": 7016,
      "folow": 7017,
      "centre": 7018,
      "kofɔra": 7019,
      "yamariya": 7020,
      "girinman": 7021,
      "britani": 7022,
      "simila": 7023,
      "witamini": 7024,
      "daliluw": 7025,
      "kamanagan": 7026,
      "ɲɔ́gɔn": 7027,
      "12": 7028,
      "ay": 7029,
      "cker": 7030,
      "isa": 7031,
      "ihu": 7032,
      "nti": 7033,
      "njo": 7034,
      "rr": 7035,
      "vu": 7036,
      "zz": 7037,
      "ür": 7038,
      "́gu": 7039,
      "ante": 7040,
      "ance": 7041,
      "yel": 7042,
      "lie": 7043,
      "raoni": 7044,
      "titu": 7045,
      "tigɛn": 7046,
      "nacogo": 7047,
      "kokan": 7048,
      "koɲuman": 7049,
      "siden": 7050,
      "tar": 7051,
      "kansi": 7052,
      "dalu": 7053,
      "fai": 7054,
      "lele": 7055,
      "bori": 7056,
      "haba": 7057,
      "cord": 7058,
      "toto": 7059,
      "tonia": 7060,
      "foun": 7061,
      "tanna": 7062,
      "cí": 7063,
      "cɛ́": 7064,
      "banga": 7065,
      "yiba": 7066,
      "danman": 7067,
      "maramafɛn": 7068,
      "piye": 7069,
      "tilew": 7070,
      "nova": 7071,
      "kumabaw": 7072,
      "jatew": 7073,
      "saratiw": 7074,
      "zuwɛn": 7075,
      "nɔgɔman": 7076,
      "sirila": 7077,
      "gɛlɛyaba": 7078,
      "baarakɛɲɔgɔn": 7079,
      "faatu": 7080,
      "siyɛnw": 7081,
      "belebelew": 7082,
      "estonia": 7083,
      "kɛrɛfɛmɔgɔ": 7084,
      "woloso": 7085,
      "dogoli": 7086,
      "kɛcogow": 7087,
      "jaraw": 7088,
      "kungokolo": 7089,
      "yamaru": 7090,
      "jakumawara": 7091,
      "dunanjiginso": 7092,
      "munumununi": 7093,
      "nunnu": 7094,
      "kabakoma": 7095,
      "story": 7096,
      "sanjiba": 7097,
      "naanina": 7098,
      "suran": 7099,
      "dɔɔnindɔɔnin": 7100,
      "jogow": 7101,
      "fiyɛta": 7102,
      "sokɔnɔbagan": 7103,
      "weleweleda": 7104,
      "kabakuruw": 7105,
      "alamisadon": 7106,
      "renaissance": 7107,
      "namibi": 7108,
      "raonic": 7109,
      "13": 7110,
      "av": 7111,
      "ach": 7112,
      "eji": 7113,
      "fɔrɔ": 7114,
      "lling": 7115,
      "mur": 7116,
      "open": 7117,
      "ssion": 7118,
      "kafara": 7119,
      "kor": 7120,
      "sipiri": 7121,
      "dakuru": 7122,
      "sel": 7123,
      "fakan": 7124,
      "santia": 7125,
      "hal": 7126,
      "mier": 7127,
      "cori": 7128,
      "dɔnin": 7129,
      "key": 7130,
      "rev": 7131,
      "mula": 7132,
      "dè": 7133,
      "tolo": 7134,
      "waatiyɛlɛma": 7135,
      "web": 7136,
      "london": 7137,
      "dilanw": 7138,
      "fede": 7139,
      "more": 7140,
      "tugulan": 7141,
      "wiri": 7142,
      "willi": 7143,
      "musomanw": 7144,
      "saraba": 7145,
      "wulakɔnɔ": 7146,
      "pus": 7147,
      "tamaki": 7148,
      "vil": 7149,
      "bagaji": 7150,
      "nɔgɔlenw": 7151,
      "jateminɛw": 7152,
      "nɔkan": 7153,
      "jigira": 7154,
      "furadama": 7155,
      "gɛlɛyara": 7156,
      "veda": 7157,
      "samali": 7158,
      "tinsan": 7159,
      "dugumakolo": 7160,
      "jukɔrɔla": 7161,
      "politi": 7162,
      "mugujuguw": 7163,
      "kiriko": 7164,
      "rɔbana": 7165,
      "kiiriso": 7166,
      "wɔlɔn": 7167,
      "pariti": 7168,
      "cinda": 7169,
      "bilemanw": 7170,
      "institu": 7171,
      "saaba": 7172,
      "vall": 7173,
      "porogaramuw": 7174,
      "hɛra": 7175,
      "nafolotigiba": 7176,
      "mununmunun": 7177,
      "yurukuyuruku": 7178,
      "sinama": 7179,
      "desanburukalo": 7180,
      "lamininen": 7181,
      "santiago": 7182,
      ",...": 7183,
      "alan": 7184,
      "afe": 7185,
      "ctri": 7186,
      "eko": 7187,
      "iz": 7188,
      "iro": 7189,
      "kli": 7190,
      "linɛgɛ": 7191,
      "mɔgɔni": 7192,
      "ruru": 7193,
      "sl": 7194,
      "swa": 7195,
      "var": 7196,
      "ɛlɛ": 7197,
      "anko": 7198,
      "latɛmɛ": 7199,
      "mare": 7200,
      "kɛr": 7201,
      "nak": 7202,
      "namaw": 7203,
      "kojuguw": 7204,
      "siyala": 7205,
      "tariki": 7206,
      "sao": 7207,
      "bɛk": 7208,
      "dami": 7209,
      "seya": 7210,
      "dɔ́n": 7211,
      "ɔgɔla": 7212,
      "kisiki": 7213,
      "dibaw": 7214,
      "digili": 7215,
      "ninkan": 7216,
      "kunkɔrɔta": 7217,
      "rɛmu": 7218,
      "mɛkisiki": 7219,
      "lanɔgɔ": 7220,
      "lea": 7221,
      "somali": 7222,
      "sotigiw": 7223,
      "kɔkɔrɔ": 7224,
      "gir": 7225,
      "jigɛ": 7226,
      "kɔnɔsukuya": 7227,
      "miche": 7228,
      "cos": 7229,
      "fɛnbɛɛ": 7230,
      "fɛnɲuman": 7231,
      "deliw": 7232,
      "roug": 7233,
      "dugukɔnɔna": 7234,
      "susa": 7235,
      "sirala": 7236,
      "tuɲan": 7237,
      "tural": 7238,
      "buda": 7239,
      "tɔ̀": 7240,
      "meni": 7241,
      "yɛlɛmacogo": 7242,
      "jɔyɔrɔw": 7243,
      "jɔsɔ": 7244,
      "zig": 7245,
      "bolisira": 7246,
      "banatɔ": 7247,
      "kuruba": 7248,
      "jateli": 7249,
      "bɔnni": 7250,
      "kɛnɛjɛ": 7251,
      "maniw": 7252,
      "lɔnkɔnɔna": 7253,
      "dɛmɛjɛkulu": 7254,
      "ɲɛmɔgɔso": 7255,
      "falenya": 7256,
      "kunkow": 7257,
      "rine": 7258,
      "lakanali": 7259,
      "gɔlɔn": 7260,
      "albert": 7261,
      "datuguli": 7262,
      "datuguni": 7263,
      "teliyara": 7264,
      "dinatɛriw": 7265,
      "dogoninw": 7266,
      "ganiya": 7267,
      "sɛnɛfɛn": 7268,
      "jɛnsɛnnen": 7269,
      "dayɛlɛli": 7270,
      "jikuruw": 7271,
      "bɛrɛbɛn": 7272,
      "kuntilennaw": 7273,
      "binkannikɛla": 7274,
      "degunna": 7275,
      "trea": 7276,
      "montevideo": 7277,
      "hawaii": 7278,
      "sokɔnɔbaganw": 7279,
      "balikuw": 7280,
      "tununen": 7281,
      "indias": 7282,
      "clau": 7283,
      "nimafɛn": 7284,
      "lasigidenw": 7285,
      "nisɔndiyalenba": 7286,
      "seginnkanni": 7287,
      "august": 7288,
      "surɔfɛn": 7289,
      "yamaruyali": 7290,
      "30": 7291,
      "bp": 7292,
      "br": 7293,
      "cg": 7294,
      "curu": 7295,
      "egy": 7296,
      "f1": 7297,
      "kra": 7298,
      "nsa": 7299,
      "nsiran": 7300,
      "ow": 7301,
      "trini": 7302,
      "upani": 7303,
      "won": 7304,
      "anka": 7305,
      "anfa": 7306,
      "indo": 7307,
      "lasu": 7308,
      "lamaw": 7309,
      "ladegeli": 7310,
      "yetaw": 7311,
      "niwa": 7312,
      "kɛkun": 7313,
      "bakelen": 7314,
      "nalo": 7315,
      "nake": 7316,
      "nadonna": 7317,
      "nakɔkɔnɔ": 7318,
      "sien": 7319,
      "sibulu": 7320,
      "right": 7321,
      "tage": 7322,
      "loon": 7323,
      "kulen": 7324,
      "sela": 7325,
      "seba": 7326,
      "jack": 7327,
      "jazz": 7328,
      "garia": 7329,
      "ninfin": 7330,
      "ɲɛli": 7331,
      "ɲɛlɛ": 7332,
      "ɲɛsigili": 7333,
      "lanko": 7334,
      "caaman": 7335,
      "boto": 7336,
      "soɲɛ": 7337,
      "sole": 7338,
      "kɔnɔtɔ": 7339,
      "had": 7340,
      "micro": 7341,
      "rec": 7342,
      "manaw": 7343,
      "tob": 7344,
      "togola": 7345,
      "tokyo": 7346,
      "fandɔ": 7347,
      "duwa": 7348,
      "duvall": 7349,
      "jɛla": 7350,
      "thro": 7351,
      "sulen": 7352,
      "ɲɔgɔnfɛ": 7353,
      "bɛɛjɛ": 7354,
      "sing": 7355,
      "yɛlɛko": 7356,
      "yɛlɛlen": 7357,
      "kolonɛ": 7358,
      "bubagaw": 7359,
      "danse": 7360,
      "taaman": 7361,
      "marayɔrɔw": 7362,
      "maralenw": 7363,
      "ɔrɔna": 7364,
      "range": 7365,
      "meli": 7366,
      "mete": 7367,
      "ziri": 7368,
      "bolifɛnw": 7369,
      "kumakun": 7370,
      "walas": 7371,
      "aliba": 7372,
      "lilaw": 7373,
      "banabatɔ": 7374,
      "kɛrɛnni": 7375,
      "kɛrɛnnen": 7376,
      "jatedenw": 7377,
      "damadama": 7378,
      "damatɛmɛn": 7379,
      "sariyasɔsɔ": 7380,
      "daminɛni": 7381,
      "binw": 7382,
      "sten": 7383,
      "nɔnni": 7384,
      "rum": 7385,
      "victoria": 7386,
      "peyiba": 7387,
      "tirisi": 7388,
      "nɔminɛli": 7389,
      "heli": 7390,
      "fagatɔ": 7391,
      "hakilidiya": 7392,
      "waribɔ": 7393,
      "gɔni": 7394,
      "ary": 7395,
      "sɛgɛsɛgɛra": 7396,
      "kunbabaw": 7397,
      "lino": 7398,
      "terre": 7399,
      "laniw": 7400,
      "alex": 7401,
      "kanubaw": 7402,
      "gosilen": 7403,
      "bayara": 7404,
      "delilen": 7405,
      "wɛzi": 7406,
      "tenin": 7407,
      "ganisitan": 7408,
      "folola": 7409,
      "monson": 7410,
      "murujan": 7411,
      "tulonw": 7412,
      "bulgaria": 7413,
      "baroda": 7414,
      "prote": 7415,
      "atah": 7416,
      "kɛɲɛni": 7417,
      "communi": 7418,
      "yɛlɛmanen": 7419,
      "mission": 7420,
      "ctor": 7421,
      "kunafonidilaw": 7422,
      "kɔnɔtɔnan": 7423,
      "tulonkɛɲɔgɔn": 7424,
      "kɔrɔmadon": 7425,
      "finɛtiriw": 7426,
      "nɔriwɛzi": 7427,
      "bune": 7428,
      "internet": 7429,
      "syn": 7430,
      "kanbayɛlɛmali": 7431,
      "afiganisitan": 7432,
      "idorozɛni": 7433,
      "viyetinamukaw": 7434,
      "banabagato": 7435,
      "halakira": 7436,
      "mobiliw": 7437,
      "kɔtɔbaso": 7438,
      "sirakunana": 7439,
      "dakuruɲɛ": 7440,
      "kɔnɔsukuyakuraw": 7441,
      "microso": 7442,
      "kolonɛli": 7443,
      "ash": 7444,
      "ataki": 7445,
      "ctic": 7446,
      "club": 7447,
      "durun": 7448,
      "dhar": 7449,
      "dɔgɔni": 7450,
      "eman": 7451,
      "eze": 7452,
      "evan": 7453,
      "econo": 7454,
      "flu": 7455,
      "gwi": 7456,
      "hl": 7457,
      "ity": 7458,
      "ibra": 7459,
      "lson": 7460,
      "mɔrɔ": 7461,
      "pper": 7462,
      "plas": 7463,
      "ssan": 7464,
      "ster": 7465,
      "stic": 7466,
      "uɲɛ": 7467,
      "vard": 7468,
      "zen": 7469,
      "ɔkisi": 7470,
      "ɛli": 7471,
      "anto": 7472,
      "anton": 7473,
      "indon": 7474,
      "insula": 7475,
      "kaka": 7476,
      "katɛmɛ": 7477,
      "lad": 7478,
      "lataama": 7479,
      "liance": 7480,
      "nigeria": 7481,
      "kɛɲɔgɔnw": 7482,
      "timu": 7483,
      "tikɛli": 7484,
      "kole": 7485,
      "sirani": 7486,
      "yahoo": 7487,
      "yawuri": 7488,
      "tamana": 7489,
      "lola": 7490,
      "kansɛri": 7491,
      "kanfɔlaw": 7492,
      "daho": 7493,
      "dabilala": 7494,
      "jas": 7495,
      "jabɔ": 7496,
      "dɔfara": 7497,
      "kiriw": 7498,
      "diego": 7499,
      "fabaliya": 7500,
      "ɲɛkelen": 7501,
      "sanka": 7502,
      "kunsi": 7503,
      "tɛ̀": 7504,
      "tɛgɛn": 7505,
      "kɔlɔn": 7506,
      "uran": 7507,
      "jim": 7508,
      "jisira": 7509,
      "gɛsɛ": 7510,
      "micha": 7511,
      "kese": 7512,
      "kewale": 7513,
      "sɔrɔta": 7514,
      "mul": 7515,
      "deu": 7516,
      "dez": 7517,
      "rov": 7518,
      "roger": 7519,
      "fantanw": 7520,
      "duwan": 7521,
      "dugusa": 7522,
      "fonina": 7523,
      "cien": 7524,
      "dence": 7525,
      "bane": 7526,
      "baaralaw": 7527,
      "yirini": 7528,
      "kɔnɔntɔ": 7529,
      "tɔntɔn": 7530,
      "sinni": 7531,
      "yɛrɛkɛ": 7532,
      "kalanbaga": 7533,
      "bilayɔrɔ": 7534,
      "senta": 7535,
      "sentin": 7536,
      "taari": 7537,
      "rand": 7538,
      "pali": 7539,
      "paper": 7540,
      "boliboli": 7541,
      "benkanw": 7542,
      "tileman": 7543,
      "ganseli": 7544,
      "kurulikɛla": 7545,
      "sɛgɛli": 7546,
      "sɛgɛsɛ": 7547,
      "zel": 7548,
      "tɔgɔsɛbɛn": 7549,
      "tɔgɔduman": 7550,
      "gɛrɛlen": 7551,
      "yoya": 7552,
      "binkan": 7553,
      "lɔninw": 7554,
      "pec": 7555,
      "kiliyanw": 7556,
      "talikɛla": 7557,
      "barakɛlaw": 7558,
      "fɔlikɛra": 7559,
      "ɲangin": 7560,
      "alliance": 7561,
      "baarakɛtaw": 7562,
      "faabaw": 7563,
      "karamɔkɔ": 7564,
      "jet": 7565,
      "jeon": 7566,
      "thomas": 7567,
      "hine": 7568,
      "yalikɛ": 7569,
      "mirila": 7570,
      "vado": 7571,
      "stad": 7572,
      "verse": 7573,
      "dinavi": 7574,
      "latigɛjɛkulu": 7575,
      "forobakɛnɛ": 7576,
      "afgani": 7577,
      "wɛli": 7578,
      "diinɛw": 7579,
      "pɛrɛnpɛrɛn": 7580,
      "sugandilen": 7581,
      "sugandilenw": 7582,
      "trali": 7583,
      "pania": 7584,
      "ders": 7585,
      "peninsula": 7586,
      "chard": 7587,
      "lakodɔnnenw": 7588,
      "tiyatiri": 7589,
      "jolisiraw": 7590,
      "marta": 7591,
      "belgra": 7592,
      "ntolatankɛnɛ": 7593,
      "photo": 7594,
      "lakoli": 7595,
      "iii": 7596,
      "marifatigi": 7597,
      "fɔnna": 7598,
      "kɔgɔjiba": 7599,
      "atlanta": 7600,
      "kɔlɔsilen": 7601,
      "degunba": 7602,
      "siginfɛ": 7603,
      "jɛɲɔgɔnyaw": 7604,
      "border": 7605,
      "sanfiɲɛba": 7606,
      "siriyakolo": 7607,
      "kulokulo": 7608,
      "sɔrɔdasiya": 7609,
      "shari": 7610,
      "spain": 7611,
      "jatigɛwale": 7612,
      "lakodonnen": 7613,
      "argentina": 7614,
      "fununen": 7615,
      "jijali": 7616,
      "kunmasuli": 7617,
      "guilla": 7618,
      "subahana": 7619,
      "afirika": 7620,
      "ezipiti": 7621,
      "house": 7622,
      "sendalanw": 7623,
      "roberts": 7624,
      "barcelona": 7625,
      "virginia": 7626,
      "scotland": 7627,
      "sɔ̀rɔ": 7628,
      "mansakɛ": 7629,
      "service": 7630,
      "kiritigɛso": 7631,
      "ɔsitrali": 7632,
      "balokodɛsɛ": 7633,
      "kɔtɛw": 7634,
      "kamera": 7635,
      "foundation": 7636,
      "nsiranɛgɛ": 7637,
      "upanisha": 7638,
      "microsoft": 7639,
      "ibrahi": 7640,
      "afganistan": 7641,
      "belgrade": 7642,
      "14": 7643,
      "24": 7644,
      "29": 7645,
      "39": 7646,
      "46": 7647,
      "84": 7648,
      "bɔg": 7649,
      "dney": 7650,
      "drome": 7651,
      "ei": 7652,
      "ey": 7653,
      "ebi": 7654,
      "fugan": 7655,
      "ht": 7656,
      "krug": 7657,
      "mc": 7658,
      "oye": 7659,
      "ora": 7660,
      "our": 7661,
      "pl": 7662,
      "pɔr": 7663,
      "plata": 7664,
      "vani": 7665,
      "zanw": 7666,
      "zza": 7667,
      "ɛman": 7668,
      "́rɛ": 7669,
      "ansa": 7670,
      "kawa": 7671,
      "kate": 7672,
      "kayira": 7673,
      "mag": 7674,
      "mafilɛli": 7675,
      "nich": 7676,
      "kɛliw": 7677,
      "bakun": 7678,
      "bayi": 7679,
      "bazi": 7680,
      "wakan": 7681,
      "tite": 7682,
      "minbagaw": 7683,
      "nayi": 7684,
      "siyɔrɔw": 7685,
      "siyen": 7686,
      "sikara": 7687,
      "sium": 7688,
      "lowe": 7689,
      "dakɛnyɛ": 7690,
      "bisegin": 7691,
      "bisiki": 7692,
      "seo": 7693,
      "seriw": 7694,
      "jac": 7695,
      "jaro": 7696,
      "jalenw": 7697,
      "galon": 7698,
      "kiin": 7699,
      "dimini": 7700,
      "dilaw": 7701,
      "fata": 7702,
      "falaw": 7703,
      "fatɔw": 7704,
      "ɲɛɲinini": 7705,
      "kunfa": 7706,
      "leri": 7707,
      "cau": 7708,
      "catiri": 7709,
      "bob": 7710,
      "boston": 7711,
      "bolinɛgɛ": 7712,
      "sokow": 7713,
      "kɔsan": 7714,
      "kɔlila": 7715,
      "kɔson": 7716,
      "gic": 7717,
      "ures": 7718,
      "temp": 7719,
      "team": 7720,
      "jibolo": 7721,
      "hamb": 7722,
      "mic": 7723,
      "aradiyo": 7724,
      "mux": 7725,
      "muko": 7726,
      "manage": 7727,
      "desh": 7728,
      "dezɛri": 7729,
      "roo": 7730,
      "rola": 7731,
      "roga": 7732,
      "rober": 7733,
      "rotasiyɔn": 7734,
      "ciyɔrɔ": 7735,
      "cɛkisɛ": 7736,
      "jamanaɲɛmɔgɔya": 7737,
      "jamanadenya": 7738,
      "baarayɔrɔw": 7739,
      "yiga": 7740,
      "gingin": 7741,
      "tupu": 7742,
      "ɲɔgɔnman": 7743,
      "singh": 7744,
      "bɛnw": 7745,
      "bɛnkanw": 7746,
      "kolosili": 7747,
      "minɛlenw": 7748,
      "yɛrɛdɛmɛ": 7749,
      "bule": 7750,
      "sigiba": 7751,
      "faraliw": 7752,
      "long": 7753,
      "mey": 7754,
      "page": 7755,
      "jɔjɔn": 7756,
      "ziyɛni": 7757,
      "anatoli": 7758,
      "nuwa": 7759,
      "benkan": 7760,
      "piriw": 7761,
      "posi": 7762,
      "poto": 7763,
      "point": 7764,
      "geum": 7765,
      "kurukan": 7766,
      "hakiliw": 7767,
      "tiniw": 7768,
      "tumaw": 7769,
      "fariya": 7770,
      "farikalaya": 7771,
      "kɛrɛni": 7772,
      "kalataw": 7773,
      "gura": 7774,
      "tɔgɔtigiya": 7775,
      "jolila": 7776,
      "jolenw": 7777,
      "puw": 7778,
      "puse": 7779,
      "yog": 7780,
      "sɔw": 7781,
      "hida": 7782,
      "history": 7783,
      "stria": 7784,
      "sɛnbɛn": 7785,
      "dɛmɛlikɛ": 7786,
      "vichy": 7787,
      "sumakisɛ": 7788,
      "burusi": 7789,
      "jɛnin": 7790,
      "ɲɛnamini": 7791,
      "nɔkɔn": 7792,
      "tonto": 7793,
      "baganfaka": 7794,
      "lakanabaa": 7795,
      "fagasu": 7796,
      "kɔrɔni": 7797,
      "dalakɛɲɛ": 7798,
      "arte": 7799,
      "sɛgɛsɛgɛlan": 7800,
      "fɔlikɛ": 7801,
      "jiribuluw": 7802,
      "amerikika": 7803,
      "alka": 7804,
      "finitigiw": 7805,
      "kalite": 7806,
      "tagabolo": 7807,
      "tɛmɛnko": 7808,
      "olution": 7809,
      "fiɲɛteliya": 7810,
      "batobaliya": 7811,
      "vert": 7812,
      "daraja": 7813,
      "sugantili": 7814,
      "dogodogoli": 7815,
      "greb": 7816,
      "fototala": 7817,
      "forobacakɛda": 7818,
      "gɛlɛnmanw": 7819,
      "kɛlɛkɛminɛnw": 7820,
      "ɲɛfɔliw": 7821,
      "labaaralaw": 7822,
      "ganaw": 7823,
      "tiyɛnnen": 7824,
      "nɛgɛjuruw": 7825,
      "shika": 7826,
      "yɛrɛyɛrɛw": 7827,
      "giripu": 7828,
      "mond": 7829,
      "mont": 7830,
      "tigilakaw": 7831,
      "asuran": 7832,
      "dɛsɛla": 7833,
      "damatɛmɛwale": 7834,
      "siɲɛta": 7835,
      "cua": 7836,
      "siratigɛla": 7837,
      "sanbɛlɛbolinɛgɛ": 7838,
      "kɔrɔbayali": 7839,
      "sankolola": 7840,
      "garisɛgɛ": 7841,
      "sanumaw": 7842,
      "march": 7843,
      "sorodasi": 7844,
      "tribune": 7845,
      "bulɔgi": 7846,
      "jikurubolikɛla": 7847,
      "11b": 7848,
      "lakodonni": 7849,
      "pɛnpɛrɛn": 7850,
      "kalandenya": 7851,
      "commer": 7852,
      "formula": 7853,
      "jɔrɔla": 7854,
      "lasɔmili": 7855,
      "000": 7856,
      "likajɔ": 7857,
      "purotɔnw": 7858,
      "jukɔrɔmadon": 7859,
      "kɔlɔsilikɛlaw": 7860,
      "arabuw": 7861,
      "italy": 7862,
      "ninikɛla": 7863,
      "dangalen": 7864,
      "firila": 7865,
      "kasabi": 7866,
      "bulɔguw": 7867,
      "kokɛta": 7868,
      "hispani": 7869,
      "yeelendibon": 7870,
      "kalifɔrni": 7871,
      "biritanikiw": 7872,
      "eee": 7873,
      "dɛmɛnan": 7874,
      "jamujan": 7875,
      "dylan": 7876,
      "palm": 7877,
      "silalɔmiba": 7878,
      "infra": 7879,
      "mɔgɔmurutiniw": 7880,
      "mieux": 7881,
      "polɔsi": 7882,
      "shankar": 7883,
      "fernando": 7884,
      "christ": 7885,
      "kazino": 7886,
      "tayilandikaw": 7887,
      "faraɲɔgɔnka": 7888,
      "wilikajɔw": 7889,
      "tasumajisisikulu": 7890,
      "elɛkitɔrɔn": 7891,
      "tropical": 7892,
      "ngalama": 7893,
      "lahiduw": 7894,
      "angkor": 7895,
      "imeyili": 7896,
      "joseon": 7897,
      "tanzani": 7898,
      "nbɛda": 7899,
      "latvia": 7900,
      "sident": 7901,
      "danmantɛmɛ": 7902,
      "revolution": 7903,
      "williams": 7904,
      "jigɛni": 7905,
      "cg46": 7906,
      "dhary": 7907,
      "ɔkisiziyɛni": 7908,
      "indone": 7909,
      "michael": 7910,
      "deuts": 7911,
      "jeongeum": 7912,
      "kruger": 7913,
      "hamburg": 7914,
      "management": 7915,
      "roberto": 7916,
      "anatolia": 7917,
      "asuransi": 7918,
      "commerce": 7919,
      "cg4684": 7920,
      "400": 7921,
      "90w": 7922,
      "ariw": 7923,
      "auro": 7924,
      "apolo": 7925,
      "apolis": 7926,
      "cf": 7927,
      "cci": 7928,
      "cze": 7929,
      "cone": 7930,
      "cct": 7931,
      "clara": 7932,
      "eg": 7933,
      "ej": 7934,
      "ete": 7935,
      "eseka": 7936,
      "ech": 7937,
      "ekuwa": 7938,
      "glynn": 7939,
      "gyel": 7940,
      "hr": 7941,
      "ila": 7942,
      "iba": 7943,
      "ikɛla": 7944,
      "ily": 7945,
      "iwasa": 7946,
      "ions": 7947,
      "jug": 7948,
      "jɔrɔnan": 7949,
      "kla": 7950,
      "krom": 7951,
      "mson": 7952,
      "mburu": 7953,
      "mcm": 7954,
      "nj": 7955,
      "nbe": 7956,
      "ndi": 7957,
      "oki": 7958,
      "ova": 7959,
      "oversi": 7960,
      "opec": 7961,
      "pst": 7962,
      "plit": 7963,
      "purce": 7964,
      "qi": 7965,
      "qv": 7966,
      "rling": 7967,
      "sr": 7968,
      "slaw": 7969,
      "tb": 7970,
      "tɔg": 7971,
      "tgen": 7972,
      "uva": 7973,
      "wong": 7974,
      "xon": 7975,
      "xtgen": 7976,
      "zy": 7977,
      "zɔrɔ": 7978,
      "üm": 7979,
      "ɔtɔ": 7980,
      "antire": 7981,
      "inves": 7982,
      "kal": 7983,
      "kazi": 7984,
      "kalila": 7985,
      "kasiyɔn": 7986,
      "katalan": 7987,
      "kafisa": 7988,
      "kahne": 7989,
      "lakura": 7990,
      "ladɔniya": 7991,
      "mabila": 7992,
      "maran": 7993,
      "makara": 7994,
      "maɲe": 7995,
      "marine": 7996,
      "list": 7997,
      "lithu": 7998,
      "nila": 7999,
      "niye": 8000,
      "nimɛ": 8001,
      "nick": 8002,
      "rash": 8003,
      "rayɛli": 8004,
      "bafo": 8005,
      "bage": 8006,
      "bathi": 8007,
      "balin": 8008,
      "badaw": 8009,
      "bayɛlɛmani": 8010,
      "ener": 8011,
      "wade": 8012,
      "wall": 8013,
      "wajuli": 8014,
      "timan": 8015,
      "titan": 8016,
      "tiyala": 8017,
      "tibɛti": 8018,
      "ming": 8019,
      "natal": 8020,
      "koye": 8021,
      "kokura": 8022,
      "kooli": 8023,
      "sile": 8024,
      "simon": 8025,
      "sirena": 8026,
      "sign": 8027,
      "yaan": 8028,
      "riba": 8029,
      "rilan": 8030,
      "rite": 8031,
      "rick": 8032,
      "rift": 8033,
      "richard": 8034,
      "beso": 8035,
      "tai": 8036,
      "tamara": 8037,
      "tabulu": 8038,
      "tafarankan": 8039,
      "loe": 8040,
      "logical": 8041,
      "saens": 8042,
      "kane": 8043,
      "fɛre": 8044,
      "fɛwn": 8045,
      "lenbaw": 8046,
      "dakɔrɔ": 8047,
      "dabu": 8048,
      "dambe": 8049,
      "damununa": 8050,
      "dabirilen": 8051,
      "daily": 8052,
      "manta": 8053,
      "mangan": 8054,
      "bidi": 8055,
      "bidɔn": 8056,
      "sewa": 8057,
      "sedan": 8058,
      "sekere": 8059,
      "sepul": 8060,
      "fikasiyɔn": 8061,
      "jasɛbɛn": 8062,
      "jagr": 8063,
      "gaze": 8064,
      "dɔfarala": 8065,
      "divi": 8066,
      "ninth": 8067,
      "ɲɛmɛ": 8068,
      "ɲɛdenw": 8069,
      "ɲɛɲinni": 8070,
      "ɲɛsigin": 8071,
      "ɲɛgannen": 8072,
      "sanju": 8073,
      "sanfiyɛn": 8074,
      "kunkuru": 8075,
      "kunkuruni": 8076,
      "rɛri": 8077,
      "rɛniya": 8078,
      "gonu": 8079,
      "fɔsi": 8080,
      "fɔjamanaw": 8081,
      "fɔsɔnni": 8082,
      "lans": 8083,
      "lanthro": 8084,
      "lega": 8085,
      "leona": 8086,
      "leono": 8087,
      "lemieux": 8088,
      "caw": 8089,
      "cabo": 8090,
      "cades": 8091,
      "camille": 8092,
      "bowen": 8093,
      "sobin": 8094,
      "sound": 8095,
      "soyu": 8096,
      "tɛniw": 8097,
      "kɔsɔ": 8098,
      "lɛsi": 8099,
      "gibi": 8100,
      "gilan": 8101,
      "urdo": 8102,
      "tetara": 8103,
      "jibara": 8104,
      "jikurunw": 8105,
      "kɔnɔbonya": 8106,
      "haka": 8107,
      "hamin": 8108,
      "miami": 8109,
      "mides": 8110,
      "cock": 8111,
      "copy": 8112,
      "arawakan": 8113,
      "fɛnkɔrɔw": 8114,
      "fɛnmisɛnni": 8115,
      "dee": 8116,
      "degin": 8117,
      "roscope": 8118,
      "tos": 8119,
      "toke": 8120,
      "tolla": 8121,
      "toronto": 8122,
      "waatibɔnda": 8123,
      "fangan": 8124,
      "dul": 8125,
      "duka": 8126,
      "dugutigilakaw": 8127,
      "tanti": 8128,
      "tanfɛn": 8129,
      "tanɔli": 8130,
      "cikulu": 8131,
      "cilaw": 8132,
      "cɛbɔw": 8133,
      "bangla": 8134,
      "thrash": 8135,
      "wotafarankan": 8136,
      "baarali": 8137,
      "baaraɲuman": 8138,
      "baarasɛgɛ": 8139,
      "baaraɲɔgɔnya": 8140,
      "sirakura": 8141,
      "dolla": 8142,
      "domɛni": 8143,
      "tut": 8144,
      "tuan": 8145,
      "tùn": 8146,
      "singer": 8147,
      "kolola": 8148,
      "nepal": 8149,
      "nels": 8150,
      "nextgen": 8151,
      "yɛrɛwili": 8152,
      "yɛrɛbaya": 8153,
      "kɔrɔfɔw": 8154,
      "buwati": 8155,
      "donwale": 8156,
      "farajalan": 8157,
      "farafasi": 8158,
      "nkalo": 8159,
      "wer": 8160,
      "kalankɔ": 8161,
      "kalankɛyɔrɔ": 8162,
      "seng": 8163,
      "sensaba": 8164,
      "dangele": 8165,
      "kɔnɔntɔnan": 8166,
      "maralanw": 8167,
      "kɛlɛkulu": 8168,
      "mega": 8169,
      "memu": 8170,
      "pale": 8171,
      "palaw": 8172,
      "pass": 8173,
      "paɲɔli": 8174,
      "paolo": 8175,
      "ɲinɛw": 8176,
      "number": 8177,
      "pilani": 8178,
      "pirɛniya": 8179,
      "ɲɛnin": 8180,
      "ɲɛnna": 8181,
      "nobele": 8182,
      "nowɛli": 8183,
      "kumasɛbɛ": 8184,
      "ganni": 8185,
      "podi": 8186,
      "poyira": 8187,
      "pollo": 8188,
      "kurula": 8189,
      "baliman": 8190,
      "ɲumannafama": 8191,
      "mohen": 8192,
      "tugubali": 8193,
      "kalobolisira": 8194,
      "farilaji": 8195,
      "ɲinifɛn": 8196,
      "sɔnkɔn": 8197,
      "wild": 8198,
      "walejugu": 8199,
      "kalafiliw": 8200,
      "ɲakini": 8201,
      "tɔgɔya": 8202,
      "joa": 8203,
      "puz": 8204,
      "jiraw": 8205,
      "jiralikɛla": 8206,
      "zachar": 8207,
      "ɲimina": 8208,
      "farikoloɲanajɛw": 8209,
      "sariyatigɛ": 8210,
      "sariyasinsin": 8211,
      "maniye": 8212,
      "irilandi": 8213,
      "binɛ": 8214,
      "bindun": 8215,
      "erectus": 8216,
      "ɔriw": 8217,
      "dugukoloyɛrɛɲɛ": 8218,
      "hote": 8219,
      "fiyɛnminɛ": 8220,
      "strom": 8221,
      "stris": 8222,
      "tamasere": 8223,
      "ruta": 8224,
      "rusa": 8225,
      "munumun": 8226,
      "vis": 8227,
      "vish": 8228,
      "masasi": 8229,
      "pelase": 8230,
      "petro": 8231,
      "ɲɛsinna": 8232,
      "cial": 8233,
      "nɔgɔba": 8234,
      "balow": 8235,
      "cɛnma": 8236,
      "dumunitobi": 8237,
      "dumuniɲumannafama": 8238,
      "kurunbolilaw": 8239,
      "mɔbilibɔlila": 8240,
      "jiginkɛnɛ": 8241,
      "barakɛyɔrɔ": 8242,
      "rinen": 8243,
      "fagata": 8244,
      "jigikɛnɛ": 8245,
      "jigilatigɛ": 8246,
      "jigifabaliya": 8247,
      "army": 8248,
      "arctic": 8249,
      "akademi": 8250,
      "shri": 8251,
      "woroji": 8252,
      "lasetaw": 8253,
      "jamatigi": 8254,
      "kowloon": 8255,
      "mario": 8256,
      "jɔnjɔntabaa": 8257,
      "juruni": 8258,
      "feerekɛlaw": 8259,
      "yeelenjibara": 8260,
      "samalen": 8261,
      "kɔkɔjiwara": 8262,
      "worodugutilebin": 8263,
      "gafeba": 8264,
      "jɔyɔrɔko": 8265,
      "kɛnɛyamaa": 8266,
      "pɔritabulu": 8267,
      "kɛrɛnkɛrɛnni": 8268,
      "kasarakɛnɛyamaa": 8269,
      "jesus": 8270,
      "jeffer": 8271,
      "thomson": 8272,
      "alessan": 8273,
      "pankurunjigikɛnɛ": 8274,
      "ɲɔgɔndandangele": 8275,
      "tiɲɛli": 8276,
      "tasumadonwale": 8277,
      "siniɲɛsigin": 8278,
      "kalataɲɛnɛbɔ": 8279,
      "fiɲɛjuguba": 8280,
      "wolodugu": 8281,
      "oneworld": 8282,
      "batokɛso": 8283,
      "warabilenw": 8284,
      "jɔlibaaraw": 8285,
      "jɔlisirani": 8286,
      "nordi": 8287,
      "kiritike": 8288,
      "fɛrɛla": 8289,
      "siem": 8290,
      "telesikɔpu": 8291,
      "sɔnnikɛyɔrɔw": 8292,
      "gɛlɛnin": 8293,
      "nɛzisanfɛ": 8294,
      "jonny": 8295,
      "misɛnmanninw": 8296,
      "dolomanfɛn": 8297,
      "italikaw": 8298,
      "brewe": 8299,
      "bresile": 8300,
      "brevis": 8301,
      "jɔlensigili": 8302,
      "diinɛkulu": 8303,
      "diinɛkɛlɛcɛw": 8304,
      "minisiriɲɛmɔgɔ": 8305,
      "dolatan": 8306,
      "ɛsipaɲɔliw": 8307,
      "nɛgɛjurusira": 8308,
      "shiva": 8309,
      "sɛnɛla": 8310,
      "lɛrila": 8311,
      "trafal": 8312,
      "traverse": 8313,
      "laɲininw": 8314,
      "luno": 8315,
      "lafiyada": 8316,
      "niare": 8317,
      "steve": 8318,
      "mansindorokolen": 8319,
      "bɛnkansɛbɛnw": 8320,
      "runnels": 8321,
      "sisitɛmu": 8322,
      "furakɛlicogo": 8323,
      "siratigɛw": 8324,
      "ayatolla": 8325,
      "kɔrɔbalenw": 8326,
      "fasajuruw": 8327,
      "amir": 8328,
      "bananen": 8329,
      "sanujɔnjɔntabaa": 8330,
      "dilannikɛyɔrɔ": 8331,
      "magaz": 8332,
      "magaya": 8333,
      "angilɛfɔjamanaw": 8334,
      "indepen": 8335,
      "tulonkɛw": 8336,
      "mɔbilini": 8337,
      "dorogo": 8338,
      "lahawotafarankan": 8339,
      "kenned": 8340,
      "funtenimayɔrɔ": 8341,
      "girinw": 8342,
      "ɲɛmɔgɔyaso": 8343,
      "khamene": 8344,
      "bania": 8345,
      "barow": 8346,
      "wolonfilaw": 8347,
      "bilalisenkan": 8348,
      "conna": 8349,
      "jamanakuntigiba": 8350,
      "pher": 8351,
      "kɛɲɛkan": 8352,
      "inski": 8353,
      "delta": 8354,
      "delhi": 8355,
      "falcone": 8356,
      "batɔɔn": 8357,
      "book": 8358,
      "kabakoyɔrɔ": 8359,
      "fɔnfɔni": 8360,
      "tigations": 8361,
      "karamɔgɔya": 8362,
      "cɛncɛnton": 8363,
      "00s": 8364,
      "edgar": 8365,
      "lahalayaw": 8366,
      "bɔlɔlɔkanfeere": 8367,
      "arabula": 8368,
      "atlantique": 8369,
      "karabakh": 8370,
      "mɔngɔli": 8371,
      "starmer": 8372,
      "backstrom": 8373,
      "kogopɛnpɛrɛn": 8374,
      "olympic": 8375,
      "olympics": 8376,
      "surunw": 8377,
      "dibifɛn": 8378,
      "dibidibifɛn": 8379,
      "electri": 8380,
      "jinsinni": 8381,
      "expositi": 8382,
      "president": 8383,
      "dakunfila": 8384,
      "jɛɲɔgɔnyako": 8385,
      "borsel": 8386,
      "gripen": 8387,
      "akɔridi": 8388,
      "acma": 8389,
      "active": 8390,
      "ground": 8391,
      "latam": 8392,
      "walt": 8393,
      "gyroscope": 8394,
      "witaminiw": 8395,
      "15nan": 8396,
      "makɔnɔnen": 8397,
      "sekonidonko": 8398,
      "izipiti": 8399,
      "izirayɛli": 8400,
      "sirakanboli": 8401,
      "sirakankasarakɛnɛyamaa": 8402,
      "yeelendimansindorokolen": 8403,
      "yɔrɔnikelen": 8404,
      "walɛribaw": 8405,
      "romanie": 8406,
      "moriori": 8407,
      "fangabolokɛlɛcɛw": 8408,
      "fiɲɛbilada": 8409,
      "bɔgɔdagaw": 8410,
      "cɛmacɛ": 8411,
      "joginnenw": 8412,
      "sahelanthro": 8413,
      "dankarili": 8414,
      "dankarilikɛla": 8415,
      "monaut": 8416,
      "setigijamanaw": 8417,
      "binnenstad": 8418,
      "indien": 8419,
      "indiana": 8420,
      "lakes": 8421,
      "kolonizasiyɔn": 8422,
      "felipe": 8423,
      "felicia": 8424,
      "reap": 8425,
      "cycades": 8426,
      "sistɛmu": 8427,
      "donald": 8428,
      "fɛsɛfɛsɛliw": 8429,
      "bɛlizikikaw": 8430,
      "astron": 8431,
      "alinaɲi": 8432,
      "lasigidenso": 8433,
      "kirby": 8434,
      "kodɔnnaw": 8435,
      "neturɔnw": 8436,
      "mɔtɔtigiw": 8437,
      "kalanfaw": 8438,
      "mankutulan": 8439,
      "dannifɛnw": 8440,
      "npalankɔnɔɔridinatɛri": 8441,
      "namgyel": 8442,
      "transni": 8443,
      "gɔlifu": 8444,
      "bloch": 8445,
      "mɔgɔmurutilew": 8446,
      "kissinger": 8447,
      "skyteam": 8448,
      "batten": 8449,
      "fernandez": 8450,
      "shark": 8451,
      "sharma": 8452,
      "nastiki": 8453,
      "dustin": 8454,
      "legelegew": 8455,
      "yɛrɛɲɛba": 8456,
      "diɲɛlaminitɔnba": 8457,
      "article": 8458,
      "jɔlisiradeniw": 8459,
      "jɔlisirakumabaw": 8460,
      "zɔzanw": 8461,
      "jakarta": 8462,
      "molekili": 8463,
      "cheng": 8464,
      "purelans": 8465,
      "nikilerɛri": 8466,
      "konɛkisiyɔn": 8467,
      "jamakafoba": 8468,
      "waleyakɛlanw": 8469,
      "protons": 8470,
      "electrons": 8471,
      "bhutan": 8472,
      "kɔnɔlajɛlaw": 8473,
      "minneapolis": 8474,
      "tiɲɛnikɛyɔrɔ": 8475,
      "woyoli": 8476,
      "zezinski": 8477,
      "dreamer": 8478,
      "patiseriw": 8479,
      "mangalaniw": 8480,
      "obanazawa": 8481,
      "urayi": 8482,
      "modɛrini": 8483,
      "choudhary": 8484,
      "gɔrijigɛni": 8485,
      "tɛbɛnnunjanw": 8486,
      "12na": 8487,
      "mununmununni": 8488,
      "izmir": 8489,
      "leader": 8490,
      "cosmonaut": 8491,
      "rouges": 8492,
      "brzezinski": 8493,
      "naked": 8494,
      "tobruk": 8495,
      "proteines": 8496,
      "fluke": 8497,
      "plasma": 8498,
      "antonurayi": 8499,
      "jimnastiki": 8500,
      "dugusajɛ": 8501,
      "papers": 8502,
      "upanishad": 8503,
      "39c": 8504,
      "baziboli": 8505,
      "jaromir": 8506,
      "muxloe": 8507,
      "posimodɛrini": 8508,
      "sɛnbɛntiya": 8509,
      "ɲɛnaminisisi": 8510,
      "artemis": 8511,
      "hispaniola": 8512,
      "infrares": 8513,
      "deutsche": 8514,
      "cctv": 8515,
      "iwasaki": 8516,
      "mcmurdo": 8517,
      "oversight": 8518,
      "pstn": 8519,
      "plitvice": 8520,
      "purcell": 8521,
      "qvc": 8522,
      "zɔrɔdani": 8523,
      "antirepirɛniya": 8524,
      "investigations": 8525,
      "ladɔniyakunafoni": 8526,
      "maɲetiki": 8527,
      "lithuania": 8528,
      "nicklas": 8529,
      "energy": 8530,
      "sepulveda": 8531,
      "fikasiyɔni": 8532,
      "ɲɛɲinnikɛlaw": 8533,
      "leonov": 8534,
      "soyuz": 8535,
      "copyright": 8536,
      "fɛnmisɛnnisiyɔrɔw": 8537,
      "thrashers": 8538,
      "baarasɛgɛlafiyɛnbɔ": 8539,
      "pilanifikasiyɔni": 8540,
      "mohenjo": 8541,
      "zachary": 8542,
      "bindunbaganw": 8543,
      "dugukoloyɛrɛɲɛsiranɲan": 8544,
      "pelasema": 8545,
      "jefferson": 8546,
      "alessandro": 8547,
      "kalataɲɛnɛbɔbagaw": 8548,
      "jɔlisiraniw": 8549,
      "trafalgar": 8550,
      "ayatollah": 8551,
      "kennedy": 8552,
      "khamenei": 8553,
      "mɔngɔlikaw": 8554,
      "borsellino": 8555,
      "akɔridiyɔn": 8556,
      "sirakankasarakɛnɛyamaakulu": 8557,
      "sahelanthropus": 8558,
      "20w": 8559,
      "41": 8560,
      "600": 8561,
      "agi": 8562,
      "apa": 8563,
      "aze": 8564,
      "abou": 8565,
      "amino": 8566,
      "bson": 8567,
      "cris": 8568,
      "dɔg": 8569,
      "duro": 8570,
      "dres": 8571,
      "ehu": 8572,
      "eva": 8573,
      "elli": 8574,
      "emmy": 8575,
      "fthan": 8576,
      "glas": 8577,
      "gger": 8578,
      "glou": 8579,
      "gür": 8580,
      "hya": 8581,
      "hjr": 8582,
      "hsien": 8583,
      "iyɔrɔ": 8584,
      "irani": 8585,
      "isiyɛnw": 8586,
      "idaho": 8587,
      "ipodi": 8588,
      "kwo": 8589,
      "krie": 8590,
      "kɔre": 8591,
      "lr": 8592,
      "lv": 8593,
      "lma": 8594,
      "lkɛ": 8595,
      "lsa": 8596,
      "mü": 8597,
      "msen": 8598,
      "mthan": 8599,
      "ngon": 8600,
      "nbalan": 8601,
      "ndp": 8602,
      "njɛw": 8603,
      "olan": 8604,
      "olɛ": 8605,
      "oriw": 8606,
      "okumu": 8607,
      "ogar": 8608,
      "otomati": 8609,
      "oxy": 8610,
      "otirisi": 8611,
      "pm": 8612,
      "pn": 8613,
      "pin": 8614,
      "phon": 8615,
      "png": 8616,
      "rna": 8617,
      "rman": 8618,
      "ruga": 8619,
      "sson": 8620,
      "sve": 8621,
      "sbane": 8622,
      "uo": 8623,
      "ucla": 8624,
      "udd": 8625,
      "ucani": 8626,
      "vana": 8627,
      "viri": 8628,
      "ws": 8629,
      "xavi": 8630,
      "yɔro": 8631,
      "ylv": 8632,
      "zɛtiw": 8633,
      "ŋaka": 8634,
      "ɛda": 8635,
      "ɛpaɲɔli": 8636,
      "ankiri": 8637,
      "incaw": 8638,
      "kadɔn": 8639,
      "kado": 8640,
      "kamo": 8641,
      "kafalenya": 8642,
      "lakɛli": 8643,
      "laje": 8644,
      "lawili": 8645,
      "lajɔra": 8646,
      "lakurakura": 8647,
      "lakɔlɔsili": 8648,
      "ladoni": 8649,
      "ladibilen": 8650,
      "latolen": 8651,
      "mab": 8652,
      "mate": 8653,
      "mayo": 8654,
      "masini": 8655,
      "mafiyɛ": 8656,
      "maguwan": 8657,
      "yed": 8658,
      "ligu": 8659,
      "likɛlaw": 8660,
      "lisili": 8661,
      "nite": 8662,
      "nius": 8663,
      "nicus": 8664,
      "nids": 8665,
      "nidɔngɔ": 8666,
      "kɛtɔn": 8667,
      "kɛniw": 8668,
      "kɛtɔla": 8669,
      "raha": 8670,
      "raro": 8671,
      "ramides": 8672,
      "bakanw": 8673,
      "bakɔlɔ": 8674,
      "baby": 8675,
      "basigilan": 8676,
      "bajolen": 8677,
      "enya": 8678,
      "ɛnpi": 8679,
      "ɔron": 8680,
      "watiw": 8681,
      "wasabaliya": 8682,
      "tiɲ": 8683,
      "tikalatasɛbɛn": 8684,
      "miny": 8685,
      "mingo": 8686,
      "minus": 8687,
      "nasa": 8688,
      "natara": 8689,
      "namanw": 8690,
      "napole": 8691,
      "nagoro": 8692,
      "nafiki": 8693,
      "nassar": 8694,
      "kot": 8695,
      "koç": 8696,
      "koun": 8697,
      "kode": 8698,
      "konka": 8699,
      "sif": 8700,
      "siy": 8701,
      "sisiw": 8702,
      "sikari": 8703,
      "sicaya": 8704,
      "yaso": 8705,
      "yaciw": 8706,
      "riga": 8707,
      "ridi": 8708,
      "rity": 8709,
      "rigibi": 8710,
      "aniw": 8711,
      "ɔrɔlan": 8712,
      "tado": 8713,
      "takala": 8714,
      "tabaaw": 8715,
      "taizi": 8716,
      "tasaw": 8717,
      "lone": 8718,
      "lock": 8719,
      "loong": 8720,
      "lopoulos": 8721,
      "saro": 8722,
      "sayala": 8723,
      "safina": 8724,
      "ɔgafe": 8725,
      "fɛni": 8726,
      "fɛlandi": 8727,
      "bɛkɛ": 8728,
      "lentiye": 8729,
      "dafan": 8730,
      "dabɔn": 8731,
      "daru": 8732,
      "dakɛɲɛn": 8733,
      "datanfɛn": 8734,
      "kubi": 8735,
      "kugu": 8736,
      "kɔno": 8737,
      "kɔnsɛ": 8738,
      "biyɛn": 8739,
      "biwi": 8740,
      "bits": 8741,
      "bibulu": 8742,
      "ught": 8743,
      "seki": 8744,
      "seca": 8745,
      "setan": 8746,
      "sekin": 8747,
      "setts": 8748,
      "sewiye": 8749,
      "sezen": 8750,
      "sefɛre": 8751,
      "fiman": 8752,
      "fimanw": 8753,
      "jab": 8754,
      "jaɲa": 8755,
      "jamanw": 8756,
      "jawili": 8757,
      "jamie": 8758,
      "japane": 8759,
      "gaja": 8760,
      "gamu": 8761,
      "gapu": 8762,
      "gaza": 8763,
      "gatali": 8764,
      "kirk": 8765,
      "kivu": 8766,
      "fasabaliya": 8767,
      "ninɔ": 8768,
      "ɲɛtaga": 8769,
      "ɲɛsɔrɔli": 8770,
      "ɲɛjanɲan": 8771,
      "sangan": 8772,
      "sanparks": 8773,
      "sanfiransi": 8774,
      "sankɔrɔtan": 8775,
      "sangeren": 8776,
      "gomul": 8777,
      "fɔcogow": 8778,
      "cam": 8779,
      "caes": 8780,
      "caaya": 8781,
      "cafene": 8782,
      "capuz": 8783,
      "boɲali": 8784,
      "bonite": 8785,
      "sol": 8786,
      "sosanfɛla": 8787,
      "sopho": 8788,
      "sosuman": 8789,
      "sowiye": 8790,
      "yɔrɔtabolo": 8791,
      "yɔrɔkɛcogo": 8792,
      "kɔkolo": 8793,
      "kɔɲɔn": 8794,
      "kɔdiw": 8795,
      "kɔɔnɔ": 8796,
      "gilla": 8797,
      "gibson": 8798,
      "yɛfɛ": 8799,
      "yɛtiw": 8800,
      "bɔɔn": 8801,
      "bɔba": 8802,
      "bɔtɔla": 8803,
      "bɔbarala": 8804,
      "tetan": 8805,
      "temata": 8806,
      "jimi": 8807,
      "jijɔ": 8808,
      "jiɲuma": 8809,
      "jimayɔrɔ": 8810,
      "jidigɛnw": 8811,
      "jikɔrɔma": 8812,
      "kɔnɔfɛrɛlen": 8813,
      "hati": 8814,
      "hast": 8815,
      "hatra": 8816,
      "haris": 8817,
      "mike": 8818,
      "miss": 8819,
      "mitt": 8820,
      "mikorɔsikɔpu": 8821,
      "copo": 8822,
      "cover": 8823,
      "coper": 8824,
      "coles": 8825,
      "inia": 8826,
      "arabes": 8827,
      "araucani": 8828,
      "dɔnba": 8829,
      "dɔngo": 8830,
      "dɔnkɔla": 8831,
      "keyo": 8832,
      "kecha": 8833,
      "reed": 8834,
      "rekera": 8835,
      "report": 8836,
      "repre": 8837,
      "recep": 8838,
      "lufthan": 8839,
      "much": 8840,
      "deo": 8841,
      "dela": 8842,
      "deshi": 8843,
      "defen": 8844,
      "depre": 8845,
      "deity": 8846,
      "rodri": 8847,
      "roev": 8848,
      "rotoru": 8849,
      "rolando": 8850,
      "tolila": 8851,
      "waatibɛ": 8852,
      "waatikɔnɔ": 8853,
      "waatiboloda": 8854,
      "waatibiwi": 8855,
      "fanfara": 8856,
      "fangana": 8857,
      "dub": 8858,
      "urus": 8859,
      "fotɔ": 8860,
      "tanɲɛ": 8861,
      "tanniw": 8862,
      "tanpera": 8863,
      "lɔsange": 8864,
      "ciki": 8865,
      "cisɛbɛ": 8866,
      "ciliw": 8867,
      "ciano": 8868,
      "dens": 8869,
      "cɛbɔ": 8870,
      "cɛjamana": 8871,
      "cɛkɔrɔba": 8872,
      "cɛkanfɔlaw": 8873,
      "bankan": 8874,
      "thani": 8875,
      "woli": 8876,
      "woniw": 8877,
      "wood": 8878,
      "wolikajɔ": 8879,
      "suv": 8880,
      "kelennan": 8881,
      "baarabaw": 8882,
      "yip": 8883,
      "yika": 8884,
      "ɔgɔndan": 8885,
      "bolobila": 8886,
      "bololagosi": 8887,
      "sirabɔ": 8888,
      "sirafilan": 8889,
      "sirafurancɛ": 8890,
      "siratugulan": 8891,
      "kuluma": 8892,
      "kulufaraw": 8893,
      "dogan": 8894,
      "domingo": 8895,
      "tukun": 8896,
      "tutaki": 8897,
      "kɔnɔni": 8898,
      "kɔnɔnana": 8899,
      "tɔniw": 8900,
      "ɲɔgɔnsɔrɔla": 8901,
      "ɲɔgɔnkunbɛ": 8902,
      "neyala": 8903,
      "nevada": 8904,
      "nepali": 8905,
      "minɛlikɛla": 8906,
      "minɛlakikaw": 8907,
      "yɛrɛfɔ": 8908,
      "yɛrɛfagasu": 8909,
      "kɔrɔfɛ": 8910,
      "bumthan": 8911,
      "donen": 8912,
      "dongili": 8913,
      "sigisenkan": 8914,
      "sigicogow": 8915,
      "welling": 8916,
      "bilale": 8917,
      "sendɔ": 8918,
      "senbila": 8919,
      "senkɔrɔma": 8920,
      "lonbola": 8921,
      "dancogo": 8922,
      "dannan": 8923,
      "dansago": 8924,
      "maralaw": 8925,
      "marataw": 8926,
      "tɛmɛra": 8927,
      "tɔburukalo": 8928,
      "tɔɲɔngɔn": 8929,
      "sanfɛyɔrɔ": 8930,
      "sanfɛsira": 8931,
      "sanfɛyɛlɛli": 8932,
      "kɛlɛkɛlaw": 8933,
      "kɛlɛlabɛn": 8934,
      "kɛlɛdaka": 8935,
      "mevi": 8936,
      "meal": 8937,
      "medina": 8938,
      "metanɔli": 8939,
      "yɛlɛmata": 8940,
      "yɛlɛmalima": 8941,
      "patta": 8942,
      "patos": 8943,
      "fɔlɔdaminɛ": 8944,
      "lajɛla": 8945,
      "lajɛkɛyɔrɔ": 8946,
      "erden": 8947,
      "erkoç": 8948,
      "erdogan": 8949,
      "bengal": 8950,
      "pik": 8951,
      "piyan": 8952,
      "pisini": 8953,
      "pilasiyɔn": 8954,
      "noto": 8955,
      "kumali": 8956,
      "ganga": 8957,
      "dilann": 8958,
      "dilanso": 8959,
      "dilanfɛn": 8960,
      "dilanfɛɛrɛw": 8961,
      "popilasiyɔn": 8962,
      "sɛbɛnba": 8963,
      "sɛbɛnfuran": 8964,
      "yalayala": 8965,
      "geolo": 8966,
      "walagatali": 8967,
      "alibaaraw": 8968,
      "minaw": 8969,
      "banajuguba": 8970,
      "kɛrɛnkɛn": 8971,
      "kuruniw": 8972,
      "tigiri": 8973,
      "tigibaw": 8974,
      "pany": 8975,
      "pantɔla": 8976,
      "baliliw": 8977,
      "mol": 8978,
      "mossa": 8979,
      "motor": 8980,
      "mozambi": 8981,
      "kɔfɛmɔgɔw": 8982,
      "jatemina": 8983,
      "kalocɛmancɛ": 8984,
      "chin": 8985,
      "chis": 8986,
      "chhatra": 8987,
      "wiliw": 8988,
      "wilson": 8989,
      "dɔrɔnw": 8990,
      "damadamani": 8991,
      "damakasi": 8992,
      "kaladenw": 8993,
      "kalamanw": 8994,
      "ɲagin": 8995,
      "guv": 8996,
      "guwata": 8997,
      "saramaya": 8998,
      "jude": 8999,
      "diɲɛkungo": 9000,
      "wulakɔnɔnaw": 9001,
      "fulama": 9002,
      "job": 9003,
      "joniw": 9004,
      "jogoya": 9005,
      "joche": 9006,
      "jiralikɛ": 9007,
      "zagreb": 9008,
      "dɔnisarize": 9009,
      "sariyako": 9010,
      "sariyatigi": 9011,
      "bilite": 9012,
      "daminɛw": 9013,
      "daminɛra": 9014,
      "daminɛlen": 9015,
      "gɛlɛkan": 9016,
      "gɛlɛmanba": 9017,
      "bintɔ": 9018,
      "binyanfan": 9019,
      "eres": 9020,
      "sɔkɔn": 9021,
      "sɔkɔnɔna": 9022,
      "sɔlɔni": 9023,
      "dugukoloyɛrɛ": 9024,
      "dugukolokɛcogo": 9025,
      "holo": 9026,
      "holandi": 9027,
      "hokuri": 9028,
      "hikawa": 9029,
      "hakɛjate": 9030,
      "tamasiɲɛn": 9031,
      "tamaisiyɛnw": 9032,
      "nanla": 9033,
      "sɛngapu": 9034,
      "nɔnma": 9035,
      "kisɛkisɛniw": 9036,
      "rusten": 9037,
      "nɛgɛkuru": 9038,
      "nɛgɛniw": 9039,
      "nɛgɛsoboli": 9040,
      "dɛmɛlan": 9041,
      "visa": 9042,
      "vishe": 9043,
      "dunlen": 9044,
      "dunkirk": 9045,
      "peye": 9046,
      "pedri": 9047,
      "thai": 9048,
      "thagora": 9049,
      "falenfɛn": 9050,
      "falenniw": 9051,
      "bagaman": 9052,
      "fangamasa": 9053,
      "fangaboɲali": 9054,
      "sumasicaya": 9055,
      "balota": 9056,
      "yirabaga": 9057,
      "yiralikɛla": 9058,
      "yiraliba": 9059,
      "burukuna": 9060,
      "dumunimisɛn": 9061,
      "dumunikɛyɔrɔw": 9062,
      "dumunifeerekɛso": 9063,
      "dumunibagaman": 9064,
      "jɛnw": 9065,
      "ɲɛnagɛ": 9066,
      "ɲɛnamɔgɔ": 9067,
      "kunkoba": 9068,
      "kunkosogow": 9069,
      "kilimɛtiri": 9070,
      "karididan": 9071,
      "quim": 9072,
      "kunafoniso": 9073,
      "kunafonilase": 9074,
      "kunafonisow": 9075,
      "kunafoniɲinijɛkulu": 9076,
      "sinsinlen": 9077,
      "jiginle": 9078,
      "hei": 9079,
      "head": 9080,
      "barali": 9081,
      "barazi": 9082,
      "baraɲɔgɔnw": 9083,
      "lakanalen": 9084,
      "lakanaɲɛtaa": 9085,
      "lakanadɛmɛjɛkulu": 9086,
      "gunkunkan": 9087,
      "jigida": 9088,
      "jigilenw": 9089,
      "these": 9090,
      "warisara": 9091,
      "gɔndan": 9092,
      "surunyala": 9093,
      "surunyani": 9094,
      "kɔrɔnyanfa": 9095,
      "filanna": 9096,
      "aryan": 9097,
      "armand": 9098,
      "enecie": 9099,
      "fɔlikanw": 9100,
      "jiriso": 9101,
      "jamama": 9102,
      "sikilkɛ": 9103,
      "kaɲɛkana": 9104,
      "ɲɔɔnɔ": 9105,
      "linn": 9106,
      "marisew": 9107,
      "kinkiriw": 9108,
      "feerekɛ": 9109,
      "alden": 9110,
      "yeelenjɛlen": 9111,
      "yeelenmɛnɛn": 9112,
      "ishikawa": 9113,
      "pɔnan": 9114,
      "nanak": 9115,
      "kɔkɔjikɛlɛbolo": 9116,
      "sisanfla": 9117,
      "gafedilanyɔrɔ": 9118,
      "sunbar": 9119,
      "baarakɛwaati": 9120,
      "baarakɛlenw": 9121,
      "harper": 9122,
      "harvard": 9123,
      "kɛrɛnkɛrɛne": 9124,
      "karate": 9125,
      "kaliba": 9126,
      "kalifala": 9127,
      "waaribɔta": 9128,
      "menya": 9129,
      "menasi": 9130,
      "kalansokɔrɔ": 9131,
      "alimakɛlɛfɔlɔ": 9132,
      "pankuruta": 9133,
      "yiriju": 9134,
      "bɔlɔlɔsoba": 9135,
      "bɔlɔlɔkoɲɛnabɔla": 9136,
      "alexi": 9137,
      "pankurunbaara": 9138,
      "ɲɔgɔndannikɛla": 9139,
      "kanuban": 9140,
      "yalikɛlaw": 9141,
      "ɲɛɲinibaga": 9142,
      "ɲɛnajɛkɛlaw": 9143,
      "uniyɔn": 9144,
      "sangala": 9145,
      "sangasojan": 9146,
      "'')": 9147,
      "vasco": 9148,
      "taabolokura": 9149,
      "maasai": 9150,
      "state": 9151,
      "start": 9152,
      "kɛrɛfɛsigi": 9153,
      "kɛrɛfɛlaw": 9154,
      "diyɛnlatigɛ": 9155,
      "sigidalakanaɲɛtaa": 9156,
      "wasablon": 9157,
      "teliyasumani": 9158,
      "furudeni": 9159,
      "daragɔn": 9160,
      "nord": 9161,
      "kirila": 9162,
      "malidivi": 9163,
      "ings": 9164,
      "gression": 9165,
      "mankanniw": 9166,
      "lakiw": 9167,
      "lakisili": 9168,
      "sɔrɔliko": 9169,
      "aristo": 9170,
      "arizantine": 9171,
      "arizona": 9172,
      "arikeyo": 9173,
      "tajibayɛlɛma": 9174,
      "tajisamani": 9175,
      "straw": 9176,
      "kabakolow": 9177,
      "llman": 9178,
      "kɛlɛkɛden": 9179,
      "aitutaki": 9180,
      "afcf": 9181,
      "biriyɛri": 9182,
      "birifiniw": 9183,
      "famuyabaliya": 9184,
      "kasoden": 9185,
      "ghrai": 9186,
      "diinɛkɛlɛ": 9187,
      "filɛriw": 9188,
      "kɔlɔlisili": 9189,
      "filimuɲama": 9190,
      "sufɛlala": 9191,
      "krichner": 9192,
      "nɛgɛjuruso": 9193,
      "piratiw": 9194,
      "shimon": 9195,
      "korona": 9196,
      "sɛnɛcogo": 9197,
      "ɲagama": 9198,
      "funtɛni": 9199,
      "dɔnnibajolen": 9200,
      "girimanbaw": 9201,
      "aster": 9202,
      "fereli": 9203,
      "dɛsɛni": 9204,
      "dɛsɛbato": 9205,
      "sariŋa": 9206,
      "ɲɛfɛra": 9207,
      "scott": 9208,
      "jijukɔrɔla": 9209,
      "labilala": 9210,
      "cuerden": 9211,
      "kunuli": 9212,
      "jamankafo": 9213,
      "landic": 9214,
      "jɛgɛmɔn": 9215,
      "dervishe": 9216,
      "penns": 9217,
      "sariyasenw": 9218,
      "sisifin": 9219,
      "faralawaleya": 9220,
      "ɲɔgɔnnajɛrɛ": 9221,
      "organi": 9222,
      "mbit": 9223,
      "cinnati": 9224,
      "cinque": 9225,
      "cincinnati": 9226,
      "ladilikɛlaw": 9227,
      "masuruna": 9228,
      "tabilɛti": 9229,
      "samaraba": 9230,
      "farikoloɲɛnɛjɛra": 9231,
      "tanpuluw": 9232,
      "bolonɔndilanso": 9233,
      "sanusɔngɔ": 9234,
      "bonyabaliya": 9235,
      "francs": 9236,
      "belly": 9237,
      "waitemata": 9238,
      "kunbɛli": 9239,
      "sɛriwiyɛtiw": 9240,
      "wulikuraw": 9241,
      "siiko": 9242,
      "trianta": 9243,
      "funtenikura": 9244,
      "kabanɔkɔ": 9245,
      "yɔrɔjanfɛ": 9246,
      "yɔrɔjanlabaarala": 9247,
      "tallinn": 9248,
      "phoenecie": 9249,
      "11a": 9250,
      "11g": 9251,
      "fernado": 9252,
      "barogon": 9253,
      "sebayasɔrɔli": 9254,
[...]
